WIDTH=8;
DEPTH=18432;
ADDRESS_RADIX=UNS;
DATA_RADIX=UNS;
CONTENT BEGIN
  0 : 3;
  1 : 8;
  2 : 246;
  3 : 0;
  4 : 6;
  5 : 8;
  6 : 255;
  7 : 252;
  8 : 235;
  9 : 234;
  10 : 3;
  11 : 6;
  12 : 0;
  13 : 1;
  14 : 229;
  15 : 0;
  16 : 14;
  17 : 252;
  18 : 8;
  19 : 216;
  20 : 255;
  21 : 250;
  22 : 254;
  23 : 247;
  24 : 8;
  25 : 252;
  26 : 30;
  27 : 0;
  28 : 254;
  29 : 2;
  30 : 0;
  31 : 253;
  32 : 9;
  33 : 2;
  34 : 3;
  35 : 1;
  36 : 2;
  37 : 246;
  38 : 248;
  39 : 236;
  40 : 1;
  41 : 235;
  42 : 236;
  43 : 242;
  44 : 240;
  45 : 251;
  46 : 23;
  47 : 243;
  48 : 2;
  49 : 242;
  50 : 226;
  51 : 233;
  52 : 1;
  53 : 235;
  54 : 1;
  55 : 2;
  56 : 6;
  57 : 239;
  58 : 17;
  59 : 2;
  60 : 255;
  61 : 254;
  62 : 242;
  63 : 253;
  64 : 255;
  65 : 219;
  66 : 4;
  67 : 5;
  68 : 26;
  69 : 1;
  70 : 0;
  71 : 11;
  72 : 3;
  73 : 215;
  74 : 1;
  75 : 8;
  76 : 238;
  77 : 24;
  78 : 189;
  79 : 229;
  80 : 0;
  81 : 254;
  82 : 10;
  83 : 254;
  84 : 11;
  85 : 255;
  86 : 1;
  87 : 249;
  88 : 250;
  89 : 214;
  90 : 19;
  91 : 9;
  92 : 7;
  93 : 25;
  94 : 2;
  95 : 247;
  96 : 40;
  97 : 8;
  98 : 249;
  99 : 7;
  100 : 252;
  101 : 0;
  102 : 240;
  103 : 2;
  104 : 28;
  105 : 230;
  106 : 207;
  107 : 231;
  108 : 0;
  109 : 255;
  110 : 255;
  111 : 217;
  112 : 8;
  113 : 253;
  114 : 246;
  115 : 217;
  116 : 10;
  117 : 191;
  118 : 246;
  119 : 1;
  120 : 6;
  121 : 255;
  122 : 213;
  123 : 9;
  124 : 6;
  125 : 1;
  126 : 249;
  127 : 7;
  128 : 13;
  129 : 17;
  130 : 200;
  131 : 245;
  132 : 198;
  133 : 251;
  134 : 231;
  135 : 0;
  136 : 5;
  137 : 226;
  138 : 0;
  139 : 19;
  140 : 3;
  141 : 9;
  142 : 255;
  143 : 8;
  144 : 254;
  145 : 246;
  146 : 11;
  147 : 186;
  148 : 24;
  149 : 236;
  150 : 7;
  151 : 246;
  152 : 10;
  153 : 3;
  154 : 249;
  155 : 253;
  156 : 17;
  157 : 176;
  158 : 255;
  159 : 234;
  160 : 223;
  161 : 254;
  162 : 27;
  163 : 253;
  164 : 38;
  165 : 220;
  166 : 13;
  167 : 4;
  168 : 148;
  169 : 238;
  170 : 189;
  171 : 247;
  172 : 242;
  173 : 219;
  174 : 26;
  175 : 255;
  176 : 253;
  177 : 232;
  178 : 253;
  179 : 247;
  180 : 236;
  181 : 248;
  182 : 26;
  183 : 254;
  184 : 240;
  185 : 0;
  186 : 52;
  187 : 11;
  188 : 236;
  189 : 2;
  190 : 248;
  191 : 18;
  192 : 237;
  193 : 40;
  194 : 30;
  195 : 46;
  196 : 240;
  197 : 229;
  198 : 44;
  199 : 34;
  200 : 14;
  201 : 200;
  202 : 198;
  203 : 13;
  204 : 3;
  205 : 32;
  206 : 6;
  207 : 252;
  208 : 31;
  209 : 248;
  210 : 232;
  211 : 221;
  212 : 7;
  213 : 23;
  214 : 248;
  215 : 239;
  216 : 238;
  217 : 231;
  218 : 2;
  219 : 34;
  220 : 173;
  221 : 237;
  222 : 10;
  223 : 238;
  224 : 207;
  225 : 34;
  226 : 225;
  227 : 254;
  228 : 247;
  229 : 189;
  230 : 222;
  231 : 239;
  232 : 217;
  233 : 248;
  234 : 33;
  235 : 252;
  236 : 0;
  237 : 232;
  238 : 25;
  239 : 39;
  240 : 38;
  241 : 226;
  242 : 248;
  243 : 15;
  244 : 40;
  245 : 202;
  246 : 222;
  247 : 34;
  248 : 244;
  249 : 16;
  250 : 252;
  251 : 220;
  252 : 28;
  253 : 17;
  254 : 255;
  255 : 22;
  256 : 0;
  257 : 240;
  258 : 24;
  259 : 0;
  260 : 0;
  261 : 0;
  262 : 0;
  263 : 235;
  264 : 0;
  265 : 0;
  266 : 0;
  267 : 0;
  268 : 0;
  269 : 0;
  270 : 229;
  271 : 20;
  272 : 18;
  273 : 0;
  274 : 23;
  275 : 0;
  276 : 0;
  277 : 0;
  278 : 0;
  279 : 239;
  280 : 0;
  281 : 0;
  282 : 25;
  283 : 18;
  284 : 0;
  285 : 0;
  286 : 234;
  287 : 20;
  288 : 18;
  289 : 0;
  290 : 0;
  291 : 0;
  292 : 0;
  293 : 14;
  294 : 0;
  295 : 242;
  296 : 0;
  297 : 226;
  298 : 241;
  299 : 239;
  300 : 0;
  301 : 0;
  302 : 0;
  303 : 225;
  304 : 240;
  305 : 0;
  306 : 0;
  307 : 0;
  308 : 0;
  309 : 222;
  310 : 0;
  311 : 27;
  312 : 20;
  313 : 0;
  314 : 234;
  315 : 21;
  316 : 0;
  317 : 0;
  318 : 236;
  319 : 0;
  320 : 10;
  321 : 0;
  322 : 247;
  323 : 254;
  324 : 5;
  325 : 5;
  326 : 218;
  327 : 231;
  328 : 216;
  329 : 7;
  330 : 218;
  331 : 209;
  332 : 8;
  333 : 219;
  334 : 214;
  335 : 224;
  336 : 195;
  337 : 9;
  338 : 230;
  339 : 13;
  340 : 37;
  341 : 7;
  342 : 46;
  343 : 201;
  344 : 250;
  345 : 221;
  346 : 211;
  347 : 251;
  348 : 42;
  349 : 255;
  350 : 50;
  351 : 28;
  352 : 7;
  353 : 224;
  354 : 39;
  355 : 15;
  356 : 227;
  357 : 18;
  358 : 209;
  359 : 210;
  360 : 250;
  361 : 55;
  362 : 243;
  363 : 241;
  364 : 0;
  365 : 5;
  366 : 247;
  367 : 243;
  368 : 25;
  369 : 231;
  370 : 211;
  371 : 221;
  372 : 210;
  373 : 6;
  374 : 250;
  375 : 4;
  376 : 3;
  377 : 1;
  378 : 218;
  379 : 190;
  380 : 200;
  381 : 233;
  382 : 199;
  383 : 47;
  384 : 246;
  385 : 14;
  386 : 250;
  387 : 2;
  388 : 25;
  389 : 219;
  390 : 26;
  391 : 250;
  392 : 232;
  393 : 253;
  394 : 251;
  395 : 238;
  396 : 23;
  397 : 241;
  398 : 220;
  399 : 5;
  400 : 236;
  401 : 11;
  402 : 253;
  403 : 248;
  404 : 243;
  405 : 248;
  406 : 12;
  407 : 13;
  408 : 6;
  409 : 211;
  410 : 21;
  411 : 47;
  412 : 255;
  413 : 228;
  414 : 33;
  415 : 246;
  416 : 238;
  417 : 6;
  418 : 6;
  419 : 246;
  420 : 227;
  421 : 0;
  422 : 8;
  423 : 234;
  424 : 2;
  425 : 23;
  426 : 235;
  427 : 251;
  428 : 242;
  429 : 21;
  430 : 231;
  431 : 214;
  432 : 8;
  433 : 242;
  434 : 203;
  435 : 210;
  436 : 245;
  437 : 217;
  438 : 255;
  439 : 10;
  440 : 31;
  441 : 240;
  442 : 255;
  443 : 7;
  444 : 246;
  445 : 248;
  446 : 1;
  447 : 10;
  448 : 1;
  449 : 48;
  450 : 225;
  451 : 193;
  452 : 227;
  453 : 18;
  454 : 31;
  455 : 251;
  456 : 10;
  457 : 5;
  458 : 251;
  459 : 249;
  460 : 6;
  461 : 38;
  462 : 3;
  463 : 42;
  464 : 245;
  465 : 210;
  466 : 27;
  467 : 207;
  468 : 13;
  469 : 207;
  470 : 22;
  471 : 243;
  472 : 44;
  473 : 3;
  474 : 0;
  475 : 249;
  476 : 6;
  477 : 207;
  478 : 254;
  479 : 21;
  480 : 217;
  481 : 253;
  482 : 2;
  483 : 213;
  484 : 6;
  485 : 236;
  486 : 8;
  487 : 5;
  488 : 206;
  489 : 34;
  490 : 215;
  491 : 240;
  492 : 0;
  493 : 222;
  494 : 13;
  495 : 243;
  496 : 226;
  497 : 3;
  498 : 237;
  499 : 0;
  500 : 227;
  501 : 13;
  502 : 15;
  503 : 16;
  504 : 213;
  505 : 254;
  506 : 32;
  507 : 1;
  508 : 187;
  509 : 1;
  510 : 0;
  511 : 248;
  512 : 254;
  513 : 26;
  514 : 229;
  515 : 253;
  516 : 245;
  517 : 220;
  518 : 5;
  519 : 21;
  520 : 195;
  521 : 203;
  522 : 249;
  523 : 254;
  524 : 232;
  525 : 12;
  526 : 230;
  527 : 8;
  528 : 18;
  529 : 246;
  530 : 244;
  531 : 176;
  532 : 5;
  533 : 24;
  534 : 248;
  535 : 252;
  536 : 1;
  537 : 226;
  538 : 251;
  539 : 6;
  540 : 12;
  541 : 214;
  542 : 238;
  543 : 237;
  544 : 222;
  545 : 0;
  546 : 1;
  547 : 24;
  548 : 26;
  549 : 186;
  550 : 251;
  551 : 228;
  552 : 195;
  553 : 200;
  554 : 0;
  555 : 250;
  556 : 0;
  557 : 197;
  558 : 30;
  559 : 5;
  560 : 249;
  561 : 211;
  562 : 236;
  563 : 212;
  564 : 6;
  565 : 240;
  566 : 5;
  567 : 12;
  568 : 246;
  569 : 248;
  570 : 32;
  571 : 8;
  572 : 2;
  573 : 223;
  574 : 246;
  575 : 15;
  576 : 0;
  577 : 0;
  578 : 0;
  579 : 0;
  580 : 0;
  581 : 242;
  582 : 0;
  583 : 241;
  584 : 0;
  585 : 238;
  586 : 17;
  587 : 0;
  588 : 0;
  589 : 24;
  590 : 228;
  591 : 14;
  592 : 0;
  593 : 16;
  594 : 17;
  595 : 0;
  596 : 21;
  597 : 0;
  598 : 0;
  599 : 0;
  600 : 0;
  601 : 0;
  602 : 24;
  603 : 17;
  604 : 0;
  605 : 15;
  606 : 0;
  607 : 0;
  608 : 20;
  609 : 0;
  610 : 0;
  611 : 0;
  612 : 241;
  613 : 0;
  614 : 237;
  615 : 0;
  616 : 20;
  617 : 239;
  618 : 223;
  619 : 0;
  620 : 0;
  621 : 241;
  622 : 0;
  623 : 223;
  624 : 0;
  625 : 15;
  626 : 233;
  627 : 0;
  628 : 0;
  629 : 210;
  630 : 224;
  631 : 17;
  632 : 19;
  633 : 0;
  634 : 239;
  635 : 0;
  636 : 0;
  637 : 0;
  638 : 0;
  639 : 237;
  640 : 255;
  641 : 251;
  642 : 35;
  643 : 38;
  644 : 252;
  645 : 211;
  646 : 5;
  647 : 0;
  648 : 236;
  649 : 199;
  650 : 230;
  651 : 1;
  652 : 38;
  653 : 214;
  654 : 1;
  655 : 254;
  656 : 17;
  657 : 252;
  658 : 253;
  659 : 215;
  660 : 240;
  661 : 34;
  662 : 247;
  663 : 238;
  664 : 247;
  665 : 199;
  666 : 24;
  667 : 50;
  668 : 229;
  669 : 224;
  670 : 28;
  671 : 217;
  672 : 234;
  673 : 24;
  674 : 251;
  675 : 21;
  676 : 0;
  677 : 249;
  678 : 219;
  679 : 207;
  680 : 242;
  681 : 249;
  682 : 22;
  683 : 243;
  684 : 0;
  685 : 32;
  686 : 8;
  687 : 4;
  688 : 28;
  689 : 214;
  690 : 229;
  691 : 237;
  692 : 39;
  693 : 197;
  694 : 233;
  695 : 0;
  696 : 36;
  697 : 251;
  698 : 247;
  699 : 4;
  700 : 251;
  701 : 11;
  702 : 245;
  703 : 12;
  704 : 11;
  705 : 5;
  706 : 35;
  707 : 248;
  708 : 3;
  709 : 2;
  710 : 248;
  711 : 224;
  712 : 223;
  713 : 5;
  714 : 244;
  715 : 209;
  716 : 26;
  717 : 225;
  718 : 216;
  719 : 255;
  720 : 227;
  721 : 8;
  722 : 223;
  723 : 14;
  724 : 8;
  725 : 245;
  726 : 29;
  727 : 224;
  728 : 199;
  729 : 216;
  730 : 5;
  731 : 250;
  732 : 36;
  733 : 226;
  734 : 55;
  735 : 39;
  736 : 1;
  737 : 2;
  738 : 43;
  739 : 5;
  740 : 214;
  741 : 18;
  742 : 237;
  743 : 215;
  744 : 247;
  745 : 95;
  746 : 219;
  747 : 250;
  748 : 0;
  749 : 21;
  750 : 247;
  751 : 249;
  752 : 5;
  753 : 230;
  754 : 242;
  755 : 17;
  756 : 213;
  757 : 7;
  758 : 248;
  759 : 242;
  760 : 1;
  761 : 219;
  762 : 232;
  763 : 208;
  764 : 213;
  765 : 219;
  766 : 246;
  767 : 44;
  768 : 250;
  769 : 192;
  770 : 215;
  771 : 235;
  772 : 250;
  773 : 28;
  774 : 251;
  775 : 48;
  776 : 223;
  777 : 215;
  778 : 3;
  779 : 13;
  780 : 227;
  781 : 49;
  782 : 233;
  783 : 20;
  784 : 0;
  785 : 2;
  786 : 0;
  787 : 191;
  788 : 26;
  789 : 47;
  790 : 44;
  791 : 8;
  792 : 3;
  793 : 233;
  794 : 255;
  795 : 242;
  796 : 44;
  797 : 242;
  798 : 1;
  799 : 25;
  800 : 243;
  801 : 242;
  802 : 5;
  803 : 36;
  804 : 8;
  805 : 34;
  806 : 251;
  807 : 218;
  808 : 29;
  809 : 253;
  810 : 191;
  811 : 254;
  812 : 0;
  813 : 254;
  814 : 10;
  815 : 13;
  816 : 5;
  817 : 8;
  818 : 7;
  819 : 201;
  820 : 242;
  821 : 242;
  822 : 36;
  823 : 22;
  824 : 248;
  825 : 6;
  826 : 222;
  827 : 13;
  828 : 221;
  829 : 254;
  830 : 255;
  831 : 10;
  832 : 253;
  833 : 11;
  834 : 243;
  835 : 239;
  836 : 30;
  837 : 0;
  838 : 222;
  839 : 215;
  840 : 204;
  841 : 4;
  842 : 218;
  843 : 208;
  844 : 229;
  845 : 243;
  846 : 201;
  847 : 210;
  848 : 205;
  849 : 27;
  850 : 232;
  851 : 249;
  852 : 14;
  853 : 250;
  854 : 8;
  855 : 220;
  856 : 208;
  857 : 247;
  858 : 218;
  859 : 214;
  860 : 25;
  861 : 5;
  862 : 2;
  863 : 27;
  864 : 13;
  865 : 207;
  866 : 27;
  867 : 17;
  868 : 237;
  869 : 27;
  870 : 244;
  871 : 239;
  872 : 250;
  873 : 5;
  874 : 252;
  875 : 241;
  876 : 237;
  877 : 236;
  878 : 248;
  879 : 225;
  880 : 243;
  881 : 229;
  882 : 253;
  883 : 3;
  884 : 193;
  885 : 17;
  886 : 253;
  887 : 231;
  888 : 242;
  889 : 9;
  890 : 200;
  891 : 202;
  892 : 248;
  893 : 218;
  894 : 246;
  895 : 7;
  896 : 252;
  897 : 250;
  898 : 37;
  899 : 5;
  900 : 30;
  901 : 19;
  902 : 11;
  903 : 1;
  904 : 0;
  905 : 228;
  906 : 4;
  907 : 225;
  908 : 24;
  909 : 246;
  910 : 217;
  911 : 5;
  912 : 9;
  913 : 4;
  914 : 3;
  915 : 243;
  916 : 250;
  917 : 233;
  918 : 7;
  919 : 245;
  920 : 253;
  921 : 197;
  922 : 28;
  923 : 12;
  924 : 4;
  925 : 246;
  926 : 246;
  927 : 13;
  928 : 1;
  929 : 14;
  930 : 7;
  931 : 17;
  932 : 205;
  933 : 6;
  934 : 245;
  935 : 240;
  936 : 18;
  937 : 247;
  938 : 206;
  939 : 11;
  940 : 0;
  941 : 8;
  942 : 28;
  943 : 179;
  944 : 10;
  945 : 3;
  946 : 223;
  947 : 210;
  948 : 17;
  949 : 167;
  950 : 249;
  951 : 6;
  952 : 24;
  953 : 228;
  954 : 244;
  955 : 29;
  956 : 5;
  957 : 242;
  958 : 234;
  959 : 3;
  960 : 22;
  961 : 225;
  962 : 43;
  963 : 248;
  964 : 28;
  965 : 236;
  966 : 19;
  967 : 252;
  968 : 25;
  969 : 236;
  970 : 6;
  971 : 10;
  972 : 22;
  973 : 10;
  974 : 12;
  975 : 48;
  976 : 254;
  977 : 232;
  978 : 50;
  979 : 4;
  980 : 251;
  981 : 219;
  982 : 16;
  983 : 234;
  984 : 37;
  985 : 255;
  986 : 35;
  987 : 31;
  988 : 10;
  989 : 1;
  990 : 240;
  991 : 16;
  992 : 2;
  993 : 16;
  994 : 9;
  995 : 12;
  996 : 242;
  997 : 2;
  998 : 238;
  999 : 228;
  1000 : 3;
  1001 : 201;
  1002 : 216;
  1003 : 8;
  1004 : 0;
  1005 : 9;
  1006 : 238;
  1007 : 160;
  1008 : 175;
  1009 : 28;
  1010 : 244;
  1011 : 231;
  1012 : 15;
  1013 : 218;
  1014 : 212;
  1015 : 51;
  1016 : 253;
  1017 : 30;
  1018 : 245;
  1019 : 1;
  1020 : 239;
  1021 : 32;
  1022 : 219;
  1023 : 0;
  1024 : 4;
  1025 : 14;
  1026 : 202;
  1027 : 208;
  1028 : 205;
  1029 : 24;
  1030 : 29;
  1031 : 2;
  1032 : 2;
  1033 : 246;
  1034 : 224;
  1035 : 250;
  1036 : 26;
  1037 : 45;
  1038 : 237;
  1039 : 39;
  1040 : 222;
  1041 : 200;
  1042 : 31;
  1043 : 226;
  1044 : 18;
  1045 : 245;
  1046 : 9;
  1047 : 245;
  1048 : 12;
  1049 : 221;
  1050 : 247;
  1051 : 0;
  1052 : 227;
  1053 : 218;
  1054 : 2;
  1055 : 20;
  1056 : 3;
  1057 : 0;
  1058 : 15;
  1059 : 231;
  1060 : 34;
  1061 : 234;
  1062 : 4;
  1063 : 2;
  1064 : 165;
  1065 : 11;
  1066 : 12;
  1067 : 245;
  1068 : 0;
  1069 : 215;
  1070 : 6;
  1071 : 20;
  1072 : 18;
  1073 : 243;
  1074 : 253;
  1075 : 13;
  1076 : 198;
  1077 : 7;
  1078 : 16;
  1079 : 13;
  1080 : 233;
  1081 : 243;
  1082 : 8;
  1083 : 251;
  1084 : 231;
  1085 : 250;
  1086 : 247;
  1087 : 249;
  1088 : 234;
  1089 : 6;
  1090 : 2;
  1091 : 250;
  1092 : 2;
  1093 : 254;
  1094 : 251;
  1095 : 3;
  1096 : 250;
  1097 : 7;
  1098 : 11;
  1099 : 2;
  1100 : 195;
  1101 : 23;
  1102 : 241;
  1103 : 248;
  1104 : 5;
  1105 : 6;
  1106 : 13;
  1107 : 3;
  1108 : 26;
  1109 : 29;
  1110 : 247;
  1111 : 201;
  1112 : 4;
  1113 : 249;
  1114 : 253;
  1115 : 26;
  1116 : 35;
  1117 : 28;
  1118 : 232;
  1119 : 18;
  1120 : 47;
  1121 : 12;
  1122 : 20;
  1123 : 38;
  1124 : 4;
  1125 : 4;
  1126 : 6;
  1127 : 207;
  1128 : 9;
  1129 : 208;
  1130 : 212;
  1131 : 249;
  1132 : 238;
  1133 : 233;
  1134 : 219;
  1135 : 213;
  1136 : 249;
  1137 : 232;
  1138 : 4;
  1139 : 233;
  1140 : 16;
  1141 : 228;
  1142 : 202;
  1143 : 12;
  1144 : 13;
  1145 : 49;
  1146 : 171;
  1147 : 248;
  1148 : 4;
  1149 : 3;
  1150 : 190;
  1151 : 41;
  1152 : 243;
  1153 : 250;
  1154 : 12;
  1155 : 4;
  1156 : 2;
  1157 : 237;
  1158 : 248;
  1159 : 16;
  1160 : 5;
  1161 : 229;
  1162 : 218;
  1163 : 10;
  1164 : 205;
  1165 : 245;
  1166 : 9;
  1167 : 219;
  1168 : 14;
  1169 : 253;
  1170 : 202;
  1171 : 251;
  1172 : 12;
  1173 : 220;
  1174 : 247;
  1175 : 240;
  1176 : 190;
  1177 : 10;
  1178 : 9;
  1179 : 180;
  1180 : 196;
  1181 : 3;
  1182 : 240;
  1183 : 242;
  1184 : 202;
  1185 : 37;
  1186 : 195;
  1187 : 233;
  1188 : 9;
  1189 : 201;
  1190 : 244;
  1191 : 6;
  1192 : 201;
  1193 : 227;
  1194 : 3;
  1195 : 254;
  1196 : 0;
  1197 : 249;
  1198 : 7;
  1199 : 36;
  1200 : 250;
  1201 : 3;
  1202 : 25;
  1203 : 12;
  1204 : 216;
  1205 : 250;
  1206 : 223;
  1207 : 217;
  1208 : 196;
  1209 : 245;
  1210 : 2;
  1211 : 227;
  1212 : 16;
  1213 : 233;
  1214 : 254;
  1215 : 250;
  1216 : 18;
  1217 : 21;
  1218 : 56;
  1219 : 209;
  1220 : 13;
  1221 : 249;
  1222 : 1;
  1223 : 251;
  1224 : 3;
  1225 : 244;
  1226 : 0;
  1227 : 250;
  1228 : 4;
  1229 : 28;
  1230 : 247;
  1231 : 44;
  1232 : 251;
  1233 : 236;
  1234 : 36;
  1235 : 237;
  1236 : 255;
  1237 : 214;
  1238 : 44;
  1239 : 242;
  1240 : 42;
  1241 : 6;
  1242 : 28;
  1243 : 30;
  1244 : 7;
  1245 : 241;
  1246 : 13;
  1247 : 10;
  1248 : 250;
  1249 : 9;
  1250 : 6;
  1251 : 226;
  1252 : 248;
  1253 : 11;
  1254 : 254;
  1255 : 0;
  1256 : 0;
  1257 : 216;
  1258 : 184;
  1259 : 2;
  1260 : 0;
  1261 : 238;
  1262 : 247;
  1263 : 180;
  1264 : 186;
  1265 : 5;
  1266 : 212;
  1267 : 220;
  1268 : 12;
  1269 : 216;
  1270 : 233;
  1271 : 62;
  1272 : 235;
  1273 : 255;
  1274 : 13;
  1275 : 18;
  1276 : 232;
  1277 : 23;
  1278 : 251;
  1279 : 219;
  1280 : 6;
  1281 : 244;
  1282 : 220;
  1283 : 180;
  1284 : 218;
  1285 : 251;
  1286 : 234;
  1287 : 219;
  1288 : 8;
  1289 : 226;
  1290 : 255;
  1291 : 248;
  1292 : 8;
  1293 : 18;
  1294 : 18;
  1295 : 45;
  1296 : 248;
  1297 : 235;
  1298 : 34;
  1299 : 189;
  1300 : 11;
  1301 : 180;
  1302 : 7;
  1303 : 240;
  1304 : 33;
  1305 : 3;
  1306 : 18;
  1307 : 225;
  1308 : 11;
  1309 : 185;
  1310 : 245;
  1311 : 215;
  1312 : 200;
  1313 : 0;
  1314 : 22;
  1315 : 241;
  1316 : 29;
  1317 : 221;
  1318 : 27;
  1319 : 247;
  1320 : 176;
  1321 : 50;
  1322 : 193;
  1323 : 227;
  1324 : 0;
  1325 : 222;
  1326 : 18;
  1327 : 245;
  1328 : 208;
  1329 : 2;
  1330 : 253;
  1331 : 12;
  1332 : 206;
  1333 : 14;
  1334 : 13;
  1335 : 232;
  1336 : 231;
  1337 : 6;
  1338 : 29;
  1339 : 5;
  1340 : 219;
  1341 : 5;
  1342 : 246;
  1343 : 241;
  1344 : 248;
  1345 : 2;
  1346 : 251;
  1347 : 249;
  1348 : 5;
  1349 : 0;
  1350 : 250;
  1351 : 33;
  1352 : 249;
  1353 : 238;
  1354 : 5;
  1355 : 6;
  1356 : 194;
  1357 : 30;
  1358 : 189;
  1359 : 247;
  1360 : 4;
  1361 : 5;
  1362 : 27;
  1363 : 7;
  1364 : 24;
  1365 : 33;
  1366 : 249;
  1367 : 210;
  1368 : 255;
  1369 : 239;
  1370 : 251;
  1371 : 38;
  1372 : 43;
  1373 : 41;
  1374 : 1;
  1375 : 24;
  1376 : 41;
  1377 : 247;
  1378 : 242;
  1379 : 20;
  1380 : 7;
  1381 : 7;
  1382 : 237;
  1383 : 230;
  1384 : 26;
  1385 : 227;
  1386 : 207;
  1387 : 232;
  1388 : 0;
  1389 : 253;
  1390 : 253;
  1391 : 219;
  1392 : 254;
  1393 : 247;
  1394 : 11;
  1395 : 250;
  1396 : 2;
  1397 : 225;
  1398 : 219;
  1399 : 9;
  1400 : 16;
  1401 : 44;
  1402 : 166;
  1403 : 253;
  1404 : 4;
  1405 : 16;
  1406 : 205;
  1407 : 28;
  1408 : 2;
  1409 : 218;
  1410 : 245;
  1411 : 0;
  1412 : 8;
  1413 : 2;
  1414 : 253;
  1415 : 1;
  1416 : 255;
  1417 : 213;
  1418 : 6;
  1419 : 17;
  1420 : 2;
  1421 : 1;
  1422 : 205;
  1423 : 252;
  1424 : 255;
  1425 : 22;
  1426 : 11;
  1427 : 2;
  1428 : 255;
  1429 : 3;
  1430 : 1;
  1431 : 240;
  1432 : 13;
  1433 : 224;
  1434 : 1;
  1435 : 34;
  1436 : 26;
  1437 : 17;
  1438 : 229;
  1439 : 250;
  1440 : 14;
  1441 : 241;
  1442 : 255;
  1443 : 4;
  1444 : 254;
  1445 : 23;
  1446 : 13;
  1447 : 227;
  1448 : 28;
  1449 : 231;
  1450 : 204;
  1451 : 0;
  1452 : 0;
  1453 : 254;
  1454 : 2;
  1455 : 212;
  1456 : 11;
  1457 : 237;
  1458 : 221;
  1459 : 194;
  1460 : 31;
  1461 : 188;
  1462 : 232;
  1463 : 2;
  1464 : 4;
  1465 : 5;
  1466 : 235;
  1467 : 10;
  1468 : 20;
  1469 : 9;
  1470 : 234;
  1471 : 3;
  1472 : 248;
  1473 : 9;
  1474 : 2;
  1475 : 15;
  1476 : 30;
  1477 : 248;
  1478 : 33;
  1479 : 252;
  1480 : 249;
  1481 : 3;
  1482 : 10;
  1483 : 4;
  1484 : 241;
  1485 : 254;
  1486 : 220;
  1487 : 7;
  1488 : 21;
  1489 : 37;
  1490 : 28;
  1491 : 3;
  1492 : 252;
  1493 : 242;
  1494 : 255;
  1495 : 209;
  1496 : 3;
  1497 : 0;
  1498 : 10;
  1499 : 37;
  1500 : 8;
  1501 : 43;
  1502 : 245;
  1503 : 251;
  1504 : 19;
  1505 : 1;
  1506 : 15;
  1507 : 24;
  1508 : 231;
  1509 : 27;
  1510 : 1;
  1511 : 216;
  1512 : 6;
  1513 : 243;
  1514 : 229;
  1515 : 11;
  1516 : 0;
  1517 : 233;
  1518 : 222;
  1519 : 244;
  1520 : 255;
  1521 : 238;
  1522 : 250;
  1523 : 18;
  1524 : 4;
  1525 : 252;
  1526 : 255;
  1527 : 27;
  1528 : 239;
  1529 : 47;
  1530 : 247;
  1531 : 6;
  1532 : 21;
  1533 : 7;
  1534 : 224;
  1535 : 0;
  1536 : 0;
  1537 : 234;
  1538 : 0;
  1539 : 0;
  1540 : 0;
  1541 : 0;
  1542 : 14;
  1543 : 236;
  1544 : 0;
  1545 : 236;
  1546 : 0;
  1547 : 0;
  1548 : 0;
  1549 : 0;
  1550 : 233;
  1551 : 0;
  1552 : 0;
  1553 : 0;
  1554 : 0;
  1555 : 0;
  1556 : 0;
  1557 : 0;
  1558 : 0;
  1559 : 0;
  1560 : 0;
  1561 : 0;
  1562 : 27;
  1563 : 0;
  1564 : 0;
  1565 : 0;
  1566 : 242;
  1567 : 0;
  1568 : 0;
  1569 : 0;
  1570 : 242;
  1571 : 0;
  1572 : 0;
  1573 : 0;
  1574 : 240;
  1575 : 239;
  1576 : 23;
  1577 : 0;
  1578 : 0;
  1579 : 0;
  1580 : 0;
  1581 : 0;
  1582 : 0;
  1583 : 238;
  1584 : 0;
  1585 : 239;
  1586 : 222;
  1587 : 0;
  1588 : 14;
  1589 : 220;
  1590 : 240;
  1591 : 0;
  1592 : 0;
  1593 : 0;
  1594 : 0;
  1595 : 0;
  1596 : 0;
  1597 : 0;
  1598 : 0;
  1599 : 0;
  1600 : 0;
  1601 : 228;
  1602 : 16;
  1603 : 0;
  1604 : 26;
  1605 : 2;
  1606 : 227;
  1607 : 14;
  1608 : 246;
  1609 : 216;
  1610 : 252;
  1611 : 251;
  1612 : 13;
  1613 : 252;
  1614 : 187;
  1615 : 229;
  1616 : 252;
  1617 : 32;
  1618 : 4;
  1619 : 0;
  1620 : 13;
  1621 : 255;
  1622 : 252;
  1623 : 237;
  1624 : 0;
  1625 : 200;
  1626 : 3;
  1627 : 2;
  1628 : 25;
  1629 : 1;
  1630 : 4;
  1631 : 252;
  1632 : 38;
  1633 : 3;
  1634 : 253;
  1635 : 7;
  1636 : 224;
  1637 : 22;
  1638 : 212;
  1639 : 199;
  1640 : 22;
  1641 : 9;
  1642 : 248;
  1643 : 237;
  1644 : 0;
  1645 : 251;
  1646 : 10;
  1647 : 204;
  1648 : 3;
  1649 : 229;
  1650 : 216;
  1651 : 205;
  1652 : 254;
  1653 : 223;
  1654 : 225;
  1655 : 254;
  1656 : 13;
  1657 : 247;
  1658 : 199;
  1659 : 1;
  1660 : 249;
  1661 : 248;
  1662 : 232;
  1663 : 14;
  1664 : 27;
  1665 : 11;
  1666 : 7;
  1667 : 250;
  1668 : 15;
  1669 : 250;
  1670 : 254;
  1671 : 238;
  1672 : 1;
  1673 : 1;
  1674 : 19;
  1675 : 12;
  1676 : 2;
  1677 : 13;
  1678 : 38;
  1679 : 57;
  1680 : 250;
  1681 : 228;
  1682 : 12;
  1683 : 247;
  1684 : 26;
  1685 : 240;
  1686 : 31;
  1687 : 214;
  1688 : 14;
  1689 : 0;
  1690 : 31;
  1691 : 16;
  1692 : 39;
  1693 : 246;
  1694 : 240;
  1695 : 16;
  1696 : 249;
  1697 : 31;
  1698 : 32;
  1699 : 20;
  1700 : 247;
  1701 : 2;
  1702 : 14;
  1703 : 0;
  1704 : 229;
  1705 : 250;
  1706 : 216;
  1707 : 21;
  1708 : 0;
  1709 : 10;
  1710 : 234;
  1711 : 186;
  1712 : 170;
  1713 : 36;
  1714 : 245;
  1715 : 6;
  1716 : 0;
  1717 : 254;
  1718 : 227;
  1719 : 18;
  1720 : 247;
  1721 : 26;
  1722 : 1;
  1723 : 244;
  1724 : 201;
  1725 : 13;
  1726 : 211;
  1727 : 219;
  1728 : 249;
  1729 : 240;
  1730 : 3;
  1731 : 251;
  1732 : 11;
  1733 : 220;
  1734 : 250;
  1735 : 239;
  1736 : 15;
  1737 : 24;
  1738 : 16;
  1739 : 20;
  1740 : 223;
  1741 : 254;
  1742 : 20;
  1743 : 11;
  1744 : 28;
  1745 : 7;
  1746 : 25;
  1747 : 254;
  1748 : 31;
  1749 : 1;
  1750 : 255;
  1751 : 213;
  1752 : 9;
  1753 : 34;
  1754 : 18;
  1755 : 18;
  1756 : 6;
  1757 : 44;
  1758 : 217;
  1759 : 22;
  1760 : 13;
  1761 : 10;
  1762 : 10;
  1763 : 33;
  1764 : 244;
  1765 : 13;
  1766 : 42;
  1767 : 207;
  1768 : 3;
  1769 : 205;
  1770 : 221;
  1771 : 13;
  1772 : 0;
  1773 : 5;
  1774 : 197;
  1775 : 186;
  1776 : 196;
  1777 : 253;
  1778 : 13;
  1779 : 248;
  1780 : 26;
  1781 : 232;
  1782 : 191;
  1783 : 17;
  1784 : 239;
  1785 : 45;
  1786 : 236;
  1787 : 2;
  1788 : 27;
  1789 : 28;
  1790 : 211;
  1791 : 1;
  1792 : 242;
  1793 : 251;
  1794 : 248;
  1795 : 254;
  1796 : 234;
  1797 : 235;
  1798 : 251;
  1799 : 4;
  1800 : 244;
  1801 : 187;
  1802 : 2;
  1803 : 10;
  1804 : 247;
  1805 : 11;
  1806 : 226;
  1807 : 245;
  1808 : 27;
  1809 : 238;
  1810 : 26;
  1811 : 248;
  1812 : 248;
  1813 : 244;
  1814 : 244;
  1815 : 230;
  1816 : 0;
  1817 : 239;
  1818 : 3;
  1819 : 255;
  1820 : 3;
  1821 : 239;
  1822 : 12;
  1823 : 218;
  1824 : 249;
  1825 : 246;
  1826 : 3;
  1827 : 7;
  1828 : 14;
  1829 : 231;
  1830 : 242;
  1831 : 224;
  1832 : 8;
  1833 : 249;
  1834 : 6;
  1835 : 254;
  1836 : 0;
  1837 : 230;
  1838 : 3;
  1839 : 253;
  1840 : 242;
  1841 : 228;
  1842 : 218;
  1843 : 223;
  1844 : 254;
  1845 : 212;
  1846 : 16;
  1847 : 249;
  1848 : 20;
  1849 : 249;
  1850 : 24;
  1851 : 22;
  1852 : 14;
  1853 : 251;
  1854 : 254;
  1855 : 7;
  1856 : 251;
  1857 : 34;
  1858 : 30;
  1859 : 39;
  1860 : 220;
  1861 : 231;
  1862 : 252;
  1863 : 36;
  1864 : 241;
  1865 : 214;
  1866 : 227;
  1867 : 3;
  1868 : 29;
  1869 : 249;
  1870 : 8;
  1871 : 248;
  1872 : 17;
  1873 : 235;
  1874 : 240;
  1875 : 233;
  1876 : 2;
  1877 : 255;
  1878 : 8;
  1879 : 5;
  1880 : 247;
  1881 : 247;
  1882 : 8;
  1883 : 43;
  1884 : 249;
  1885 : 229;
  1886 : 35;
  1887 : 236;
  1888 : 203;
  1889 : 36;
  1890 : 253;
  1891 : 14;
  1892 : 255;
  1893 : 238;
  1894 : 221;
  1895 : 235;
  1896 : 242;
  1897 : 251;
  1898 : 253;
  1899 : 2;
  1900 : 0;
  1901 : 28;
  1902 : 22;
  1903 : 9;
  1904 : 28;
  1905 : 251;
  1906 : 0;
  1907 : 251;
  1908 : 17;
  1909 : 214;
  1910 : 236;
  1911 : 15;
  1912 : 33;
  1913 : 1;
  1914 : 250;
  1915 : 4;
  1916 : 2;
  1917 : 1;
  1918 : 251;
  1919 : 30;
  1920 : 20;
  1921 : 223;
  1922 : 247;
  1923 : 250;
  1924 : 21;
  1925 : 20;
  1926 : 220;
  1927 : 20;
  1928 : 242;
  1929 : 214;
  1930 : 253;
  1931 : 16;
  1932 : 245;
  1933 : 12;
  1934 : 188;
  1935 : 223;
  1936 : 3;
  1937 : 3;
  1938 : 6;
  1939 : 2;
  1940 : 9;
  1941 : 5;
  1942 : 17;
  1943 : 247;
  1944 : 253;
  1945 : 208;
  1946 : 253;
  1947 : 251;
  1948 : 36;
  1949 : 5;
  1950 : 8;
  1951 : 28;
  1952 : 17;
  1953 : 224;
  1954 : 249;
  1955 : 2;
  1956 : 14;
  1957 : 6;
  1958 : 192;
  1959 : 217;
  1960 : 41;
  1961 : 2;
  1962 : 225;
  1963 : 245;
  1964 : 0;
  1965 : 230;
  1966 : 32;
  1967 : 235;
  1968 : 5;
  1969 : 231;
  1970 : 254;
  1971 : 246;
  1972 : 231;
  1973 : 218;
  1974 : 251;
  1975 : 1;
  1976 : 11;
  1977 : 15;
  1978 : 161;
  1979 : 233;
  1980 : 246;
  1981 : 255;
  1982 : 213;
  1983 : 44;
  1984 : 19;
  1985 : 225;
  1986 : 1;
  1987 : 22;
  1988 : 13;
  1989 : 17;
  1990 : 6;
  1991 : 250;
  1992 : 252;
  1993 : 208;
  1994 : 254;
  1995 : 0;
  1996 : 4;
  1997 : 243;
  1998 : 215;
  1999 : 254;
  2000 : 3;
  2001 : 15;
  2002 : 6;
  2003 : 244;
  2004 : 253;
  2005 : 251;
  2006 : 247;
  2007 : 4;
  2008 : 8;
  2009 : 242;
  2010 : 1;
  2011 : 1;
  2012 : 17;
  2013 : 248;
  2014 : 255;
  2015 : 239;
  2016 : 10;
  2017 : 0;
  2018 : 4;
  2019 : 5;
  2020 : 250;
  2021 : 254;
  2022 : 243;
  2023 : 240;
  2024 : 21;
  2025 : 232;
  2026 : 246;
  2027 : 11;
  2028 : 0;
  2029 : 244;
  2030 : 10;
  2031 : 238;
  2032 : 31;
  2033 : 5;
  2034 : 226;
  2035 : 202;
  2036 : 253;
  2037 : 204;
  2038 : 3;
  2039 : 255;
  2040 : 4;
  2041 : 220;
  2042 : 2;
  2043 : 8;
  2044 : 3;
  2045 : 255;
  2046 : 251;
  2047 : 254;
  2048 : 5;
  2049 : 247;
  2050 : 216;
  2051 : 2;
  2052 : 255;
  2053 : 3;
  2054 : 251;
  2055 : 255;
  2056 : 3;
  2057 : 255;
  2058 : 9;
  2059 : 4;
  2060 : 228;
  2061 : 1;
  2062 : 27;
  2063 : 15;
  2064 : 24;
  2065 : 251;
  2066 : 3;
  2067 : 3;
  2068 : 2;
  2069 : 14;
  2070 : 255;
  2071 : 3;
  2072 : 4;
  2073 : 5;
  2074 : 1;
  2075 : 250;
  2076 : 17;
  2077 : 2;
  2078 : 225;
  2079 : 1;
  2080 : 11;
  2081 : 238;
  2082 : 3;
  2083 : 254;
  2084 : 35;
  2085 : 255;
  2086 : 12;
  2087 : 212;
  2088 : 255;
  2089 : 219;
  2090 : 218;
  2091 : 216;
  2092 : 239;
  2093 : 254;
  2094 : 252;
  2095 : 223;
  2096 : 254;
  2097 : 0;
  2098 : 230;
  2099 : 1;
  2100 : 16;
  2101 : 0;
  2102 : 252;
  2103 : 5;
  2104 : 4;
  2105 : 19;
  2106 : 243;
  2107 : 255;
  2108 : 4;
  2109 : 17;
  2110 : 1;
  2111 : 2;
  2112 : 2;
  2113 : 4;
  2114 : 213;
  2115 : 0;
  2116 : 244;
  2117 : 7;
  2118 : 216;
  2119 : 235;
  2120 : 0;
  2121 : 19;
  2122 : 3;
  2123 : 249;
  2124 : 222;
  2125 : 0;
  2126 : 30;
  2127 : 22;
  2128 : 0;
  2129 : 2;
  2130 : 2;
  2131 : 10;
  2132 : 13;
  2133 : 246;
  2134 : 28;
  2135 : 241;
  2136 : 12;
  2137 : 3;
  2138 : 251;
  2139 : 253;
  2140 : 7;
  2141 : 241;
  2142 : 230;
  2143 : 4;
  2144 : 6;
  2145 : 224;
  2146 : 2;
  2147 : 1;
  2148 : 27;
  2149 : 251;
  2150 : 253;
  2151 : 227;
  2152 : 254;
  2153 : 194;
  2154 : 222;
  2155 : 202;
  2156 : 233;
  2157 : 27;
  2158 : 222;
  2159 : 211;
  2160 : 4;
  2161 : 5;
  2162 : 253;
  2163 : 224;
  2164 : 255;
  2165 : 197;
  2166 : 250;
  2167 : 10;
  2168 : 2;
  2169 : 10;
  2170 : 252;
  2171 : 211;
  2172 : 7;
  2173 : 11;
  2174 : 228;
  2175 : 25;
  2176 : 253;
  2177 : 187;
  2178 : 169;
  2179 : 25;
  2180 : 228;
  2181 : 230;
  2182 : 235;
  2183 : 229;
  2184 : 140;
  2185 : 212;
  2186 : 4;
  2187 : 223;
  2188 : 236;
  2189 : 223;
  2190 : 3;
  2191 : 8;
  2192 : 21;
  2193 : 248;
  2194 : 217;
  2195 : 206;
  2196 : 2;
  2197 : 47;
  2198 : 0;
  2199 : 254;
  2200 : 250;
  2201 : 215;
  2202 : 17;
  2203 : 203;
  2204 : 245;
  2205 : 204;
  2206 : 15;
  2207 : 238;
  2208 : 200;
  2209 : 248;
  2210 : 30;
  2211 : 255;
  2212 : 33;
  2213 : 192;
  2214 : 6;
  2215 : 251;
  2216 : 254;
  2217 : 230;
  2218 : 165;
  2219 : 185;
  2220 : 238;
  2221 : 218;
  2222 : 7;
  2223 : 228;
  2224 : 5;
  2225 : 252;
  2226 : 244;
  2227 : 219;
  2228 : 38;
  2229 : 0;
  2230 : 23;
  2231 : 215;
  2232 : 10;
  2233 : 236;
  2234 : 8;
  2235 : 45;
  2236 : 31;
  2237 : 222;
  2238 : 255;
  2239 : 238;
  2240 : 218;
  2241 : 255;
  2242 : 23;
  2243 : 36;
  2244 : 32;
  2245 : 9;
  2246 : 16;
  2247 : 251;
  2248 : 249;
  2249 : 205;
  2250 : 226;
  2251 : 248;
  2252 : 226;
  2253 : 239;
  2254 : 252;
  2255 : 3;
  2256 : 33;
  2257 : 36;
  2258 : 230;
  2259 : 236;
  2260 : 4;
  2261 : 39;
  2262 : 3;
  2263 : 19;
  2264 : 248;
  2265 : 236;
  2266 : 30;
  2267 : 9;
  2268 : 189;
  2269 : 241;
  2270 : 39;
  2271 : 237;
  2272 : 0;
  2273 : 0;
  2274 : 233;
  2275 : 254;
  2276 : 232;
  2277 : 236;
  2278 : 19;
  2279 : 228;
  2280 : 2;
  2281 : 209;
  2282 : 13;
  2283 : 9;
  2284 : 0;
  2285 : 0;
  2286 : 31;
  2287 : 227;
  2288 : 249;
  2289 : 1;
  2290 : 248;
  2291 : 225;
  2292 : 21;
  2293 : 207;
  2294 : 205;
  2295 : 227;
  2296 : 14;
  2297 : 198;
  2298 : 11;
  2299 : 11;
  2300 : 2;
  2301 : 223;
  2302 : 242;
  2303 : 27;
  2304 : 0;
  2305 : 0;
  2306 : 0;
  2307 : 0;
  2308 : 0;
  2309 : 0;
  2310 : 242;
  2311 : 0;
  2312 : 0;
  2313 : 0;
  2314 : 14;
  2315 : 19;
  2316 : 235;
  2317 : 15;
  2318 : 23;
  2319 : 0;
  2320 : 15;
  2321 : 0;
  2322 : 22;
  2323 : 0;
  2324 : 0;
  2325 : 0;
  2326 : 0;
  2327 : 0;
  2328 : 15;
  2329 : 0;
  2330 : 0;
  2331 : 0;
  2332 : 0;
  2333 : 0;
  2334 : 0;
  2335 : 0;
  2336 : 0;
  2337 : 227;
  2338 : 238;
  2339 : 238;
  2340 : 23;
  2341 : 0;
  2342 : 0;
  2343 : 219;
  2344 : 16;
  2345 : 209;
  2346 : 236;
  2347 : 222;
  2348 : 0;
  2349 : 0;
  2350 : 0;
  2351 : 0;
  2352 : 235;
  2353 : 0;
  2354 : 226;
  2355 : 231;
  2356 : 233;
  2357 : 223;
  2358 : 242;
  2359 : 0;
  2360 : 0;
  2361 : 19;
  2362 : 0;
  2363 : 0;
  2364 : 0;
  2365 : 18;
  2366 : 241;
  2367 : 14;
  2368 : 238;
  2369 : 45;
  2370 : 225;
  2371 : 255;
  2372 : 9;
  2373 : 14;
  2374 : 43;
  2375 : 251;
  2376 : 5;
  2377 : 5;
  2378 : 24;
  2379 : 250;
  2380 : 54;
  2381 : 193;
  2382 : 231;
  2383 : 17;
  2384 : 210;
  2385 : 206;
  2386 : 218;
  2387 : 18;
  2388 : 39;
  2389 : 1;
  2390 : 9;
  2391 : 2;
  2392 : 244;
  2393 : 235;
  2394 : 225;
  2395 : 12;
  2396 : 2;
  2397 : 3;
  2398 : 17;
  2399 : 242;
  2400 : 27;
  2401 : 230;
  2402 : 43;
  2403 : 20;
  2404 : 191;
  2405 : 19;
  2406 : 233;
  2407 : 216;
  2408 : 227;
  2409 : 36;
  2410 : 4;
  2411 : 249;
  2412 : 0;
  2413 : 41;
  2414 : 230;
  2415 : 255;
  2416 : 37;
  2417 : 228;
  2418 : 208;
  2419 : 0;
  2420 : 209;
  2421 : 229;
  2422 : 0;
  2423 : 21;
  2424 : 11;
  2425 : 201;
  2426 : 9;
  2427 : 250;
  2428 : 196;
  2429 : 197;
  2430 : 232;
  2431 : 222;
  2432 : 252;
  2433 : 2;
  2434 : 239;
  2435 : 201;
  2436 : 24;
  2437 : 213;
  2438 : 19;
  2439 : 242;
  2440 : 0;
  2441 : 224;
  2442 : 240;
  2443 : 6;
  2444 : 16;
  2445 : 253;
  2446 : 2;
  2447 : 9;
  2448 : 10;
  2449 : 1;
  2450 : 234;
  2451 : 218;
  2452 : 242;
  2453 : 0;
  2454 : 254;
  2455 : 241;
  2456 : 28;
  2457 : 243;
  2458 : 24;
  2459 : 40;
  2460 : 7;
  2461 : 38;
  2462 : 246;
  2463 : 236;
  2464 : 252;
  2465 : 8;
  2466 : 244;
  2467 : 13;
  2468 : 9;
  2469 : 17;
  2470 : 252;
  2471 : 241;
  2472 : 15;
  2473 : 9;
  2474 : 202;
  2475 : 255;
  2476 : 0;
  2477 : 231;
  2478 : 12;
  2479 : 0;
  2480 : 246;
  2481 : 247;
  2482 : 5;
  2483 : 249;
  2484 : 217;
  2485 : 238;
  2486 : 176;
  2487 : 211;
  2488 : 43;
  2489 : 232;
  2490 : 198;
  2491 : 14;
  2492 : 225;
  2493 : 247;
  2494 : 218;
  2495 : 232;
  2496 : 23;
  2497 : 209;
  2498 : 179;
  2499 : 0;
  2500 : 218;
  2501 : 201;
  2502 : 229;
  2503 : 8;
  2504 : 226;
  2505 : 243;
  2506 : 13;
  2507 : 254;
  2508 : 214;
  2509 : 248;
  2510 : 4;
  2511 : 11;
  2512 : 0;
  2513 : 251;
  2514 : 221;
  2515 : 181;
  2516 : 25;
  2517 : 250;
  2518 : 0;
  2519 : 248;
  2520 : 5;
  2521 : 2;
  2522 : 238;
  2523 : 191;
  2524 : 5;
  2525 : 245;
  2526 : 2;
  2527 : 238;
  2528 : 232;
  2529 : 229;
  2530 : 37;
  2531 : 246;
  2532 : 45;
  2533 : 190;
  2534 : 30;
  2535 : 0;
  2536 : 198;
  2537 : 229;
  2538 : 182;
  2539 : 212;
  2540 : 0;
  2541 : 224;
  2542 : 229;
  2543 : 214;
  2544 : 183;
  2545 : 3;
  2546 : 250;
  2547 : 230;
  2548 : 245;
  2549 : 21;
  2550 : 39;
  2551 : 218;
  2552 : 228;
  2553 : 28;
  2554 : 10;
  2555 : 29;
  2556 : 16;
  2557 : 7;
  2558 : 5;
  2559 : 237;
  2560 : 253;
  2561 : 245;
  2562 : 225;
  2563 : 29;
  2564 : 243;
  2565 : 4;
  2566 : 254;
  2567 : 248;
  2568 : 189;
  2569 : 232;
  2570 : 255;
  2571 : 214;
  2572 : 206;
  2573 : 241;
  2574 : 255;
  2575 : 24;
  2576 : 1;
  2577 : 16;
  2578 : 199;
  2579 : 17;
  2580 : 2;
  2581 : 52;
  2582 : 15;
  2583 : 239;
  2584 : 212;
  2585 : 211;
  2586 : 1;
  2587 : 243;
  2588 : 232;
  2589 : 242;
  2590 : 251;
  2591 : 2;
  2592 : 223;
  2593 : 254;
  2594 : 3;
  2595 : 252;
  2596 : 18;
  2597 : 252;
  2598 : 11;
  2599 : 249;
  2600 : 2;
  2601 : 189;
  2602 : 228;
  2603 : 220;
  2604 : 0;
  2605 : 236;
  2606 : 5;
  2607 : 218;
  2608 : 35;
  2609 : 252;
  2610 : 250;
  2611 : 228;
  2612 : 51;
  2613 : 212;
  2614 : 7;
  2615 : 247;
  2616 : 14;
  2617 : 196;
  2618 : 21;
  2619 : 38;
  2620 : 12;
  2621 : 208;
  2622 : 11;
  2623 : 15;
  2624 : 0;
  2625 : 0;
  2626 : 236;
  2627 : 0;
  2628 : 0;
  2629 : 0;
  2630 : 0;
  2631 : 0;
  2632 : 0;
  2633 : 0;
  2634 : 0;
  2635 : 0;
  2636 : 236;
  2637 : 15;
  2638 : 22;
  2639 : 0;
  2640 : 0;
  2641 : 0;
  2642 : 25;
  2643 : 0;
  2644 : 0;
  2645 : 241;
  2646 : 0;
  2647 : 0;
  2648 : 0;
  2649 : 0;
  2650 : 231;
  2651 : 0;
  2652 : 14;
  2653 : 0;
  2654 : 0;
  2655 : 0;
  2656 : 0;
  2657 : 230;
  2658 : 0;
  2659 : 0;
  2660 : 0;
  2661 : 242;
  2662 : 0;
  2663 : 238;
  2664 : 0;
  2665 : 233;
  2666 : 0;
  2667 : 233;
  2668 : 239;
  2669 : 0;
  2670 : 239;
  2671 : 241;
  2672 : 0;
  2673 : 0;
  2674 : 233;
  2675 : 0;
  2676 : 237;
  2677 : 229;
  2678 : 0;
  2679 : 0;
  2680 : 0;
  2681 : 0;
  2682 : 0;
  2683 : 0;
  2684 : 0;
  2685 : 0;
  2686 : 0;
  2687 : 0;
  2688 : 252;
  2689 : 13;
  2690 : 10;
  2691 : 251;
  2692 : 33;
  2693 : 238;
  2694 : 18;
  2695 : 252;
  2696 : 2;
  2697 : 217;
  2698 : 246;
  2699 : 19;
  2700 : 47;
  2701 : 10;
  2702 : 241;
  2703 : 236;
  2704 : 1;
  2705 : 33;
  2706 : 220;
  2707 : 214;
  2708 : 249;
  2709 : 23;
  2710 : 254;
  2711 : 242;
  2712 : 2;
  2713 : 250;
  2714 : 41;
  2715 : 47;
  2716 : 239;
  2717 : 8;
  2718 : 2;
  2719 : 7;
  2720 : 0;
  2721 : 3;
  2722 : 255;
  2723 : 28;
  2724 : 243;
  2725 : 29;
  2726 : 13;
  2727 : 241;
  2728 : 30;
  2729 : 240;
  2730 : 205;
  2731 : 14;
  2732 : 0;
  2733 : 239;
  2734 : 6;
  2735 : 226;
  2736 : 22;
  2737 : 229;
  2738 : 2;
  2739 : 227;
  2740 : 254;
  2741 : 204;
  2742 : 152;
  2743 : 250;
  2744 : 39;
  2745 : 230;
  2746 : 207;
  2747 : 12;
  2748 : 234;
  2749 : 255;
  2750 : 252;
  2751 : 6;
  2752 : 226;
  2753 : 2;
  2754 : 254;
  2755 : 222;
  2756 : 21;
  2757 : 250;
  2758 : 7;
  2759 : 237;
  2760 : 5;
  2761 : 11;
  2762 : 0;
  2763 : 250;
  2764 : 62;
  2765 : 211;
  2766 : 228;
  2767 : 22;
  2768 : 209;
  2769 : 238;
  2770 : 241;
  2771 : 238;
  2772 : 249;
  2773 : 253;
  2774 : 29;
  2775 : 1;
  2776 : 22;
  2777 : 233;
  2778 : 238;
  2779 : 12;
  2780 : 4;
  2781 : 8;
  2782 : 249;
  2783 : 1;
  2784 : 2;
  2785 : 222;
  2786 : 43;
  2787 : 23;
  2788 : 171;
  2789 : 17;
  2790 : 220;
  2791 : 224;
  2792 : 7;
  2793 : 51;
  2794 : 2;
  2795 : 1;
  2796 : 0;
  2797 : 3;
  2798 : 248;
  2799 : 253;
  2800 : 19;
  2801 : 207;
  2802 : 252;
  2803 : 254;
  2804 : 206;
  2805 : 228;
  2806 : 249;
  2807 : 230;
  2808 : 8;
  2809 : 200;
  2810 : 226;
  2811 : 22;
  2812 : 183;
  2813 : 206;
  2814 : 246;
  2815 : 1;
  2816 : 239;
  2817 : 246;
  2818 : 177;
  2819 : 4;
  2820 : 240;
  2821 : 12;
  2822 : 254;
  2823 : 21;
  2824 : 245;
  2825 : 4;
  2826 : 5;
  2827 : 239;
  2828 : 215;
  2829 : 249;
  2830 : 14;
  2831 : 36;
  2832 : 27;
  2833 : 228;
  2834 : 254;
  2835 : 14;
  2836 : 12;
  2837 : 41;
  2838 : 21;
  2839 : 228;
  2840 : 246;
  2841 : 227;
  2842 : 12;
  2843 : 221;
  2844 : 43;
  2845 : 253;
  2846 : 240;
  2847 : 8;
  2848 : 249;
  2849 : 214;
  2850 : 40;
  2851 : 10;
  2852 : 15;
  2853 : 242;
  2854 : 223;
  2855 : 223;
  2856 : 254;
  2857 : 196;
  2858 : 196;
  2859 : 190;
  2860 : 0;
  2861 : 23;
  2862 : 220;
  2863 : 252;
  2864 : 27;
  2865 : 22;
  2866 : 4;
  2867 : 212;
  2868 : 251;
  2869 : 254;
  2870 : 26;
  2871 : 6;
  2872 : 1;
  2873 : 11;
  2874 : 180;
  2875 : 242;
  2876 : 253;
  2877 : 242;
  2878 : 213;
  2879 : 11;
  2880 : 214;
  2881 : 8;
  2882 : 217;
  2883 : 4;
  2884 : 238;
  2885 : 244;
  2886 : 7;
  2887 : 241;
  2888 : 9;
  2889 : 3;
  2890 : 252;
  2891 : 218;
  2892 : 15;
  2893 : 233;
  2894 : 0;
  2895 : 253;
  2896 : 203;
  2897 : 211;
  2898 : 214;
  2899 : 35;
  2900 : 10;
  2901 : 223;
  2902 : 0;
  2903 : 255;
  2904 : 190;
  2905 : 242;
  2906 : 228;
  2907 : 4;
  2908 : 249;
  2909 : 223;
  2910 : 249;
  2911 : 4;
  2912 : 4;
  2913 : 248;
  2914 : 243;
  2915 : 10;
  2916 : 207;
  2917 : 4;
  2918 : 248;
  2919 : 229;
  2920 : 197;
  2921 : 11;
  2922 : 13;
  2923 : 221;
  2924 : 0;
  2925 : 253;
  2926 : 227;
  2927 : 21;
  2928 : 37;
  2929 : 230;
  2930 : 233;
  2931 : 1;
  2932 : 224;
  2933 : 251;
  2934 : 6;
  2935 : 247;
  2936 : 230;
  2937 : 235;
  2938 : 7;
  2939 : 216;
  2940 : 241;
  2941 : 210;
  2942 : 249;
  2943 : 232;
  2944 : 21;
  2945 : 5;
  2946 : 6;
  2947 : 214;
  2948 : 19;
  2949 : 249;
  2950 : 253;
  2951 : 10;
  2952 : 29;
  2953 : 4;
  2954 : 41;
  2955 : 5;
  2956 : 250;
  2957 : 27;
  2958 : 22;
  2959 : 32;
  2960 : 33;
  2961 : 9;
  2962 : 18;
  2963 : 230;
  2964 : 233;
  2965 : 220;
  2966 : 30;
  2967 : 2;
  2968 : 42;
  2969 : 235;
  2970 : 27;
  2971 : 246;
  2972 : 9;
  2973 : 11;
  2974 : 236;
  2975 : 253;
  2976 : 9;
  2977 : 222;
  2978 : 5;
  2979 : 17;
  2980 : 35;
  2981 : 5;
  2982 : 238;
  2983 : 254;
  2984 : 6;
  2985 : 225;
  2986 : 218;
  2987 : 251;
  2988 : 237;
  2989 : 20;
  2990 : 8;
  2991 : 246;
  2992 : 4;
  2993 : 15;
  2994 : 202;
  2995 : 250;
  2996 : 202;
  2997 : 211;
  2998 : 248;
  2999 : 15;
  3000 : 5;
  3001 : 9;
  3002 : 215;
  3003 : 252;
  3004 : 235;
  3005 : 17;
  3006 : 205;
  3007 : 11;
  3008 : 10;
  3009 : 31;
  3010 : 215;
  3011 : 2;
  3012 : 207;
  3013 : 248;
  3014 : 212;
  3015 : 14;
  3016 : 20;
  3017 : 30;
  3018 : 1;
  3019 : 23;
  3020 : 242;
  3021 : 2;
  3022 : 64;
  3023 : 3;
  3024 : 249;
  3025 : 248;
  3026 : 255;
  3027 : 251;
  3028 : 243;
  3029 : 225;
  3030 : 30;
  3031 : 231;
  3032 : 44;
  3033 : 5;
  3034 : 229;
  3035 : 224;
  3036 : 31;
  3037 : 215;
  3038 : 4;
  3039 : 7;
  3040 : 231;
  3041 : 204;
  3042 : 1;
  3043 : 22;
  3044 : 45;
  3045 : 246;
  3046 : 247;
  3047 : 182;
  3048 : 172;
  3049 : 211;
  3050 : 226;
  3051 : 241;
  3052 : 0;
  3053 : 4;
  3054 : 209;
  3055 : 218;
  3056 : 201;
  3057 : 15;
  3058 : 252;
  3059 : 208;
  3060 : 204;
  3061 : 235;
  3062 : 255;
  3063 : 243;
  3064 : 226;
  3065 : 39;
  3066 : 255;
  3067 : 251;
  3068 : 234;
  3069 : 30;
  3070 : 0;
  3071 : 34;
  3072 : 254;
  3073 : 244;
  3074 : 178;
  3075 : 18;
  3076 : 2;
  3077 : 219;
  3078 : 200;
  3079 : 248;
  3080 : 183;
  3081 : 215;
  3082 : 18;
  3083 : 253;
  3084 : 235;
  3085 : 195;
  3086 : 233;
  3087 : 31;
  3088 : 26;
  3089 : 20;
  3090 : 245;
  3091 : 222;
  3092 : 7;
  3093 : 24;
  3094 : 16;
  3095 : 8;
  3096 : 249;
  3097 : 5;
  3098 : 4;
  3099 : 205;
  3100 : 252;
  3101 : 219;
  3102 : 3;
  3103 : 236;
  3104 : 7;
  3105 : 227;
  3106 : 20;
  3107 : 245;
  3108 : 46;
  3109 : 222;
  3110 : 33;
  3111 : 240;
  3112 : 204;
  3113 : 215;
  3114 : 251;
  3115 : 196;
  3116 : 237;
  3117 : 216;
  3118 : 244;
  3119 : 225;
  3120 : 194;
  3121 : 235;
  3122 : 251;
  3123 : 236;
  3124 : 34;
  3125 : 246;
  3126 : 24;
  3127 : 227;
  3128 : 253;
  3129 : 252;
  3130 : 36;
  3131 : 12;
  3132 : 7;
  3133 : 244;
  3134 : 3;
  3135 : 249;
  3136 : 221;
  3137 : 47;
  3138 : 208;
  3139 : 41;
  3140 : 174;
  3141 : 15;
  3142 : 248;
  3143 : 251;
  3144 : 252;
  3145 : 27;
  3146 : 253;
  3147 : 5;
  3148 : 216;
  3149 : 13;
  3150 : 14;
  3151 : 244;
  3152 : 250;
  3153 : 198;
  3154 : 255;
  3155 : 42;
  3156 : 4;
  3157 : 240;
  3158 : 17;
  3159 : 243;
  3160 : 2;
  3161 : 14;
  3162 : 228;
  3163 : 224;
  3164 : 252;
  3165 : 231;
  3166 : 7;
  3167 : 2;
  3168 : 7;
  3169 : 239;
  3170 : 230;
  3171 : 251;
  3172 : 9;
  3173 : 1;
  3174 : 2;
  3175 : 206;
  3176 : 213;
  3177 : 193;
  3178 : 9;
  3179 : 210;
  3180 : 0;
  3181 : 17;
  3182 : 220;
  3183 : 227;
  3184 : 13;
  3185 : 19;
  3186 : 228;
  3187 : 253;
  3188 : 243;
  3189 : 2;
  3190 : 1;
  3191 : 50;
  3192 : 1;
  3193 : 254;
  3194 : 10;
  3195 : 194;
  3196 : 224;
  3197 : 10;
  3198 : 20;
  3199 : 31;
  3200 : 222;
  3201 : 213;
  3202 : 8;
  3203 : 236;
  3204 : 34;
  3205 : 221;
  3206 : 6;
  3207 : 243;
  3208 : 239;
  3209 : 249;
  3210 : 202;
  3211 : 239;
  3212 : 200;
  3213 : 243;
  3214 : 15;
  3215 : 241;
  3216 : 21;
  3217 : 8;
  3218 : 1;
  3219 : 244;
  3220 : 235;
  3221 : 7;
  3222 : 7;
  3223 : 249;
  3224 : 198;
  3225 : 254;
  3226 : 36;
  3227 : 237;
  3228 : 170;
  3229 : 205;
  3230 : 10;
  3231 : 228;
  3232 : 172;
  3233 : 3;
  3234 : 219;
  3235 : 230;
  3236 : 225;
  3237 : 188;
  3238 : 19;
  3239 : 250;
  3240 : 221;
  3241 : 208;
  3242 : 0;
  3243 : 4;
  3244 : 0;
  3245 : 253;
  3246 : 6;
  3247 : 242;
  3248 : 211;
  3249 : 6;
  3250 : 252;
  3251 : 233;
  3252 : 246;
  3253 : 251;
  3254 : 193;
  3255 : 247;
  3256 : 233;
  3257 : 242;
  3258 : 5;
  3259 : 203;
  3260 : 206;
  3261 : 192;
  3262 : 252;
  3263 : 4;
  3264 : 38;
  3265 : 13;
  3266 : 210;
  3267 : 219;
  3268 : 233;
  3269 : 222;
  3270 : 241;
  3271 : 39;
  3272 : 252;
  3273 : 20;
  3274 : 29;
  3275 : 18;
  3276 : 228;
  3277 : 23;
  3278 : 4;
  3279 : 8;
  3280 : 249;
  3281 : 251;
  3282 : 10;
  3283 : 251;
  3284 : 6;
  3285 : 231;
  3286 : 4;
  3287 : 233;
  3288 : 42;
  3289 : 38;
  3290 : 238;
  3291 : 244;
  3292 : 44;
  3293 : 236;
  3294 : 254;
  3295 : 28;
  3296 : 242;
  3297 : 215;
  3298 : 9;
  3299 : 2;
  3300 : 10;
  3301 : 2;
  3302 : 5;
  3303 : 213;
  3304 : 205;
  3305 : 243;
  3306 : 224;
  3307 : 180;
  3308 : 0;
  3309 : 5;
  3310 : 220;
  3311 : 210;
  3312 : 195;
  3313 : 1;
  3314 : 251;
  3315 : 235;
  3316 : 224;
  3317 : 249;
  3318 : 33;
  3319 : 230;
  3320 : 223;
  3321 : 11;
  3322 : 240;
  3323 : 2;
  3324 : 13;
  3325 : 22;
  3326 : 17;
  3327 : 16;
  3328 : 27;
  3329 : 159;
  3330 : 189;
  3331 : 4;
  3332 : 2;
  3333 : 145;
  3334 : 238;
  3335 : 236;
  3336 : 229;
  3337 : 228;
  3338 : 20;
  3339 : 12;
  3340 : 225;
  3341 : 220;
  3342 : 2;
  3343 : 24;
  3344 : 255;
  3345 : 250;
  3346 : 224;
  3347 : 172;
  3348 : 24;
  3349 : 249;
  3350 : 23;
  3351 : 248;
  3352 : 7;
  3353 : 226;
  3354 : 246;
  3355 : 220;
  3356 : 4;
  3357 : 228;
  3358 : 255;
  3359 : 229;
  3360 : 224;
  3361 : 221;
  3362 : 7;
  3363 : 18;
  3364 : 43;
  3365 : 169;
  3366 : 26;
  3367 : 240;
  3368 : 211;
  3369 : 255;
  3370 : 193;
  3371 : 207;
  3372 : 0;
  3373 : 201;
  3374 : 254;
  3375 : 228;
  3376 : 198;
  3377 : 16;
  3378 : 248;
  3379 : 218;
  3380 : 251;
  3381 : 26;
  3382 : 12;
  3383 : 188;
  3384 : 238;
  3385 : 14;
  3386 : 5;
  3387 : 4;
  3388 : 28;
  3389 : 240;
  3390 : 237;
  3391 : 234;
  3392 : 254;
  3393 : 36;
  3394 : 194;
  3395 : 10;
  3396 : 191;
  3397 : 27;
  3398 : 249;
  3399 : 250;
  3400 : 255;
  3401 : 30;
  3402 : 3;
  3403 : 2;
  3404 : 239;
  3405 : 254;
  3406 : 12;
  3407 : 249;
  3408 : 22;
  3409 : 218;
  3410 : 249;
  3411 : 33;
  3412 : 20;
  3413 : 242;
  3414 : 20;
  3415 : 250;
  3416 : 236;
  3417 : 11;
  3418 : 213;
  3419 : 247;
  3420 : 254;
  3421 : 249;
  3422 : 0;
  3423 : 1;
  3424 : 9;
  3425 : 226;
  3426 : 17;
  3427 : 254;
  3428 : 6;
  3429 : 5;
  3430 : 231;
  3431 : 240;
  3432 : 214;
  3433 : 208;
  3434 : 14;
  3435 : 190;
  3436 : 0;
  3437 : 18;
  3438 : 172;
  3439 : 245;
  3440 : 18;
  3441 : 0;
  3442 : 203;
  3443 : 238;
  3444 : 253;
  3445 : 229;
  3446 : 3;
  3447 : 26;
  3448 : 1;
  3449 : 254;
  3450 : 8;
  3451 : 188;
  3452 : 241;
  3453 : 7;
  3454 : 3;
  3455 : 9;
  3456 : 10;
  3457 : 0;
  3458 : 202;
  3459 : 242;
  3460 : 254;
  3461 : 3;
  3462 : 200;
  3463 : 233;
  3464 : 255;
  3465 : 0;
  3466 : 1;
  3467 : 249;
  3468 : 217;
  3469 : 253;
  3470 : 20;
  3471 : 6;
  3472 : 31;
  3473 : 253;
  3474 : 6;
  3475 : 12;
  3476 : 12;
  3477 : 245;
  3478 : 254;
  3479 : 235;
  3480 : 10;
  3481 : 252;
  3482 : 252;
  3483 : 229;
  3484 : 8;
  3485 : 4;
  3486 : 221;
  3487 : 2;
  3488 : 10;
  3489 : 204;
  3490 : 2;
  3491 : 3;
  3492 : 13;
  3493 : 4;
  3494 : 255;
  3495 : 206;
  3496 : 2;
  3497 : 181;
  3498 : 233;
  3499 : 191;
  3500 : 0;
  3501 : 254;
  3502 : 220;
  3503 : 237;
  3504 : 5;
  3505 : 3;
  3506 : 232;
  3507 : 195;
  3508 : 250;
  3509 : 206;
  3510 : 249;
  3511 : 5;
  3512 : 254;
  3513 : 3;
  3514 : 236;
  3515 : 248;
  3516 : 19;
  3517 : 11;
  3518 : 242;
  3519 : 4;
  3520 : 228;
  3521 : 35;
  3522 : 247;
  3523 : 6;
  3524 : 191;
  3525 : 0;
  3526 : 1;
  3527 : 255;
  3528 : 33;
  3529 : 37;
  3530 : 0;
  3531 : 29;
  3532 : 228;
  3533 : 249;
  3534 : 58;
  3535 : 243;
  3536 : 26;
  3537 : 238;
  3538 : 253;
  3539 : 35;
  3540 : 238;
  3541 : 203;
  3542 : 242;
  3543 : 245;
  3544 : 248;
  3545 : 40;
  3546 : 36;
  3547 : 220;
  3548 : 234;
  3549 : 233;
  3550 : 13;
  3551 : 3;
  3552 : 0;
  3553 : 227;
  3554 : 227;
  3555 : 237;
  3556 : 2;
  3557 : 225;
  3558 : 223;
  3559 : 198;
  3560 : 176;
  3561 : 191;
  3562 : 2;
  3563 : 213;
  3564 : 0;
  3565 : 29;
  3566 : 13;
  3567 : 10;
  3568 : 1;
  3569 : 18;
  3570 : 228;
  3571 : 249;
  3572 : 235;
  3573 : 225;
  3574 : 254;
  3575 : 1;
  3576 : 250;
  3577 : 252;
  3578 : 5;
  3579 : 210;
  3580 : 213;
  3581 : 9;
  3582 : 20;
  3583 : 35;
  3584 : 0;
  3585 : 0;
  3586 : 230;
  3587 : 238;
  3588 : 0;
  3589 : 0;
  3590 : 0;
  3591 : 0;
  3592 : 0;
  3593 : 0;
  3594 : 0;
  3595 : 0;
  3596 : 0;
  3597 : 0;
  3598 : 0;
  3599 : 0;
  3600 : 0;
  3601 : 0;
  3602 : 26;
  3603 : 0;
  3604 : 0;
  3605 : 0;
  3606 : 0;
  3607 : 0;
  3608 : 0;
  3609 : 0;
  3610 : 0;
  3611 : 0;
  3612 : 0;
  3613 : 0;
  3614 : 0;
  3615 : 0;
  3616 : 16;
  3617 : 237;
  3618 : 0;
  3619 : 0;
  3620 : 0;
  3621 : 0;
  3622 : 240;
  3623 : 226;
  3624 : 0;
  3625 : 242;
  3626 : 0;
  3627 : 241;
  3628 : 236;
  3629 : 0;
  3630 : 0;
  3631 : 232;
  3632 : 0;
  3633 : 0;
  3634 : 230;
  3635 : 0;
  3636 : 0;
  3637 : 217;
  3638 : 0;
  3639 : 0;
  3640 : 0;
  3641 : 0;
  3642 : 0;
  3643 : 15;
  3644 : 17;
  3645 : 0;
  3646 : 0;
  3647 : 0;
  3648 : 1;
  3649 : 7;
  3650 : 218;
  3651 : 255;
  3652 : 11;
  3653 : 15;
  3654 : 255;
  3655 : 226;
  3656 : 5;
  3657 : 1;
  3658 : 26;
  3659 : 252;
  3660 : 22;
  3661 : 255;
  3662 : 251;
  3663 : 21;
  3664 : 243;
  3665 : 8;
  3666 : 249;
  3667 : 9;
  3668 : 3;
  3669 : 253;
  3670 : 35;
  3671 : 235;
  3672 : 4;
  3673 : 241;
  3674 : 0;
  3675 : 0;
  3676 : 9;
  3677 : 5;
  3678 : 246;
  3679 : 4;
  3680 : 28;
  3681 : 234;
  3682 : 10;
  3683 : 252;
  3684 : 235;
  3685 : 14;
  3686 : 227;
  3687 : 250;
  3688 : 251;
  3689 : 251;
  3690 : 240;
  3691 : 253;
  3692 : 237;
  3693 : 5;
  3694 : 246;
  3695 : 248;
  3696 : 31;
  3697 : 14;
  3698 : 230;
  3699 : 250;
  3700 : 243;
  3701 : 199;
  3702 : 249;
  3703 : 7;
  3704 : 6;
  3705 : 254;
  3706 : 211;
  3707 : 253;
  3708 : 249;
  3709 : 249;
  3710 : 231;
  3711 : 248;
  3712 : 33;
  3713 : 245;
  3714 : 233;
  3715 : 5;
  3716 : 216;
  3717 : 228;
  3718 : 245;
  3719 : 29;
  3720 : 12;
  3721 : 255;
  3722 : 2;
  3723 : 4;
  3724 : 251;
  3725 : 5;
  3726 : 36;
  3727 : 5;
  3728 : 18;
  3729 : 244;
  3730 : 254;
  3731 : 247;
  3732 : 9;
  3733 : 243;
  3734 : 4;
  3735 : 230;
  3736 : 54;
  3737 : 7;
  3738 : 217;
  3739 : 229;
  3740 : 24;
  3741 : 216;
  3742 : 238;
  3743 : 225;
  3744 : 203;
  3745 : 220;
  3746 : 2;
  3747 : 34;
  3748 : 35;
  3749 : 224;
  3750 : 5;
  3751 : 206;
  3752 : 143;
  3753 : 220;
  3754 : 245;
  3755 : 215;
  3756 : 235;
  3757 : 1;
  3758 : 246;
  3759 : 222;
  3760 : 188;
  3761 : 18;
  3762 : 242;
  3763 : 209;
  3764 : 208;
  3765 : 252;
  3766 : 251;
  3767 : 2;
  3768 : 216;
  3769 : 39;
  3770 : 255;
  3771 : 252;
  3772 : 252;
  3773 : 26;
  3774 : 9;
  3775 : 28;
  3776 : 238;
  3777 : 44;
  3778 : 251;
  3779 : 36;
  3780 : 193;
  3781 : 252;
  3782 : 247;
  3783 : 34;
  3784 : 2;
  3785 : 29;
  3786 : 250;
  3787 : 8;
  3788 : 243;
  3789 : 255;
  3790 : 63;
  3791 : 250;
  3792 : 32;
  3793 : 218;
  3794 : 247;
  3795 : 4;
  3796 : 219;
  3797 : 249;
  3798 : 6;
  3799 : 213;
  3800 : 4;
  3801 : 44;
  3802 : 87;
  3803 : 185;
  3804 : 237;
  3805 : 218;
  3806 : 17;
  3807 : 5;
  3808 : 251;
  3809 : 239;
  3810 : 241;
  3811 : 255;
  3812 : 25;
  3813 : 249;
  3814 : 11;
  3815 : 215;
  3816 : 168;
  3817 : 196;
  3818 : 244;
  3819 : 10;
  3820 : 0;
  3821 : 16;
  3822 : 8;
  3823 : 248;
  3824 : 245;
  3825 : 43;
  3826 : 237;
  3827 : 229;
  3828 : 227;
  3829 : 235;
  3830 : 249;
  3831 : 28;
  3832 : 239;
  3833 : 24;
  3834 : 8;
  3835 : 240;
  3836 : 238;
  3837 : 33;
  3838 : 2;
  3839 : 3;
  3840 : 235;
  3841 : 233;
  3842 : 212;
  3843 : 1;
  3844 : 252;
  3845 : 250;
  3846 : 245;
  3847 : 234;
  3848 : 219;
  3849 : 208;
  3850 : 253;
  3851 : 239;
  3852 : 243;
  3853 : 1;
  3854 : 252;
  3855 : 254;
  3856 : 5;
  3857 : 250;
  3858 : 243;
  3859 : 32;
  3860 : 246;
  3861 : 27;
  3862 : 249;
  3863 : 251;
  3864 : 252;
  3865 : 249;
  3866 : 33;
  3867 : 252;
  3868 : 233;
  3869 : 242;
  3870 : 234;
  3871 : 255;
  3872 : 12;
  3873 : 12;
  3874 : 6;
  3875 : 3;
  3876 : 4;
  3877 : 3;
  3878 : 5;
  3879 : 207;
  3880 : 20;
  3881 : 216;
  3882 : 205;
  3883 : 241;
  3884 : 0;
  3885 : 241;
  3886 : 7;
  3887 : 206;
  3888 : 27;
  3889 : 252;
  3890 : 213;
  3891 : 2;
  3892 : 34;
  3893 : 218;
  3894 : 5;
  3895 : 243;
  3896 : 14;
  3897 : 224;
  3898 : 3;
  3899 : 251;
  3900 : 12;
  3901 : 255;
  3902 : 245;
  3903 : 253;
  3904 : 243;
  3905 : 3;
  3906 : 9;
  3907 : 249;
  3908 : 56;
  3909 : 249;
  3910 : 1;
  3911 : 21;
  3912 : 1;
  3913 : 217;
  3914 : 231;
  3915 : 11;
  3916 : 30;
  3917 : 242;
  3918 : 247;
  3919 : 2;
  3920 : 18;
  3921 : 29;
  3922 : 222;
  3923 : 204;
  3924 : 247;
  3925 : 34;
  3926 : 242;
  3927 : 19;
  3928 : 24;
  3929 : 220;
  3930 : 29;
  3931 : 59;
  3932 : 235;
  3933 : 29;
  3934 : 25;
  3935 : 239;
  3936 : 1;
  3937 : 5;
  3938 : 1;
  3939 : 23;
  3940 : 216;
  3941 : 13;
  3942 : 243;
  3943 : 213;
  3944 : 24;
  3945 : 220;
  3946 : 236;
  3947 : 15;
  3948 : 0;
  3949 : 5;
  3950 : 8;
  3951 : 248;
  3952 : 0;
  3953 : 249;
  3954 : 253;
  3955 : 230;
  3956 : 11;
  3957 : 196;
  3958 : 170;
  3959 : 226;
  3960 : 45;
  3961 : 218;
  3962 : 248;
  3963 : 11;
  3964 : 240;
  3965 : 3;
  3966 : 230;
  3967 : 20;
  3968 : 2;
  3969 : 4;
  3970 : 199;
  3971 : 10;
  3972 : 9;
  3973 : 21;
  3974 : 237;
  3975 : 3;
  3976 : 240;
  3977 : 22;
  3978 : 19;
  3979 : 219;
  3980 : 254;
  3981 : 237;
  3982 : 252;
  3983 : 31;
  3984 : 0;
  3985 : 252;
  3986 : 248;
  3987 : 15;
  3988 : 21;
  3989 : 18;
  3990 : 49;
  3991 : 234;
  3992 : 237;
  3993 : 3;
  3994 : 231;
  3995 : 229;
  3996 : 11;
  3997 : 249;
  3998 : 1;
  3999 : 37;
  4000 : 9;
  4001 : 200;
  4002 : 32;
  4003 : 7;
  4004 : 233;
  4005 : 249;
  4006 : 240;
  4007 : 245;
  4008 : 247;
  4009 : 247;
  4010 : 241;
  4011 : 238;
  4012 : 236;
  4013 : 6;
  4014 : 225;
  4015 : 244;
  4016 : 27;
  4017 : 14;
  4018 : 249;
  4019 : 237;
  4020 : 255;
  4021 : 213;
  4022 : 4;
  4023 : 32;
  4024 : 254;
  4025 : 239;
  4026 : 201;
  4027 : 220;
  4028 : 238;
  4029 : 235;
  4030 : 243;
  4031 : 16;
  4032 : 19;
  4033 : 7;
  4034 : 230;
  4035 : 2;
  4036 : 252;
  4037 : 5;
  4038 : 242;
  4039 : 254;
  4040 : 6;
  4041 : 10;
  4042 : 9;
  4043 : 0;
  4044 : 247;
  4045 : 4;
  4046 : 229;
  4047 : 21;
  4048 : 21;
  4049 : 0;
  4050 : 2;
  4051 : 6;
  4052 : 252;
  4053 : 5;
  4054 : 22;
  4055 : 255;
  4056 : 9;
  4057 : 0;
  4058 : 27;
  4059 : 252;
  4060 : 13;
  4061 : 253;
  4062 : 247;
  4063 : 0;
  4064 : 12;
  4065 : 16;
  4066 : 7;
  4067 : 240;
  4068 : 255;
  4069 : 247;
  4070 : 7;
  4071 : 246;
  4072 : 12;
  4073 : 209;
  4074 : 211;
  4075 : 236;
  4076 : 0;
  4077 : 252;
  4078 : 12;
  4079 : 225;
  4080 : 3;
  4081 : 0;
  4082 : 217;
  4083 : 220;
  4084 : 1;
  4085 : 189;
  4086 : 220;
  4087 : 10;
  4088 : 4;
  4089 : 9;
  4090 : 241;
  4091 : 251;
  4092 : 6;
  4093 : 251;
  4094 : 219;
  4095 : 6;
  4096 : 253;
  4097 : 238;
  4098 : 9;
  4099 : 17;
  4100 : 202;
  4101 : 0;
  4102 : 236;
  4103 : 0;
  4104 : 11;
  4105 : 0;
  4106 : 3;
  4107 : 3;
  4108 : 235;
  4109 : 255;
  4110 : 22;
  4111 : 19;
  4112 : 2;
  4113 : 7;
  4114 : 6;
  4115 : 22;
  4116 : 255;
  4117 : 254;
  4118 : 4;
  4119 : 252;
  4120 : 232;
  4121 : 2;
  4122 : 204;
  4123 : 2;
  4124 : 255;
  4125 : 230;
  4126 : 242;
  4127 : 229;
  4128 : 34;
  4129 : 220;
  4130 : 6;
  4131 : 239;
  4132 : 31;
  4133 : 253;
  4134 : 2;
  4135 : 248;
  4136 : 252;
  4137 : 0;
  4138 : 255;
  4139 : 2;
  4140 : 239;
  4141 : 24;
  4142 : 227;
  4143 : 247;
  4144 : 1;
  4145 : 22;
  4146 : 213;
  4147 : 2;
  4148 : 251;
  4149 : 5;
  4150 : 14;
  4151 : 24;
  4152 : 5;
  4153 : 251;
  4154 : 253;
  4155 : 230;
  4156 : 32;
  4157 : 3;
  4158 : 0;
  4159 : 2;
  4160 : 246;
  4161 : 3;
  4162 : 37;
  4163 : 17;
  4164 : 215;
  4165 : 5;
  4166 : 179;
  4167 : 236;
  4168 : 250;
  4169 : 254;
  4170 : 20;
  4171 : 255;
  4172 : 229;
  4173 : 224;
  4174 : 34;
  4175 : 255;
  4176 : 250;
  4177 : 237;
  4178 : 6;
  4179 : 30;
  4180 : 254;
  4181 : 252;
  4182 : 1;
  4183 : 253;
  4184 : 237;
  4185 : 23;
  4186 : 209;
  4187 : 3;
  4188 : 6;
  4189 : 240;
  4190 : 16;
  4191 : 222;
  4192 : 11;
  4193 : 2;
  4194 : 30;
  4195 : 249;
  4196 : 254;
  4197 : 3;
  4198 : 236;
  4199 : 201;
  4200 : 6;
  4201 : 229;
  4202 : 3;
  4203 : 38;
  4204 : 0;
  4205 : 29;
  4206 : 228;
  4207 : 226;
  4208 : 6;
  4209 : 21;
  4210 : 218;
  4211 : 5;
  4212 : 251;
  4213 : 11;
  4214 : 252;
  4215 : 20;
  4216 : 4;
  4217 : 245;
  4218 : 10;
  4219 : 249;
  4220 : 5;
  4221 : 4;
  4222 : 24;
  4223 : 12;
  4224 : 12;
  4225 : 6;
  4226 : 129;
  4227 : 23;
  4228 : 220;
  4229 : 54;
  4230 : 2;
  4231 : 187;
  4232 : 241;
  4233 : 11;
  4234 : 255;
  4235 : 240;
  4236 : 12;
  4237 : 18;
  4238 : 1;
  4239 : 30;
  4240 : 52;
  4241 : 242;
  4242 : 194;
  4243 : 52;
  4244 : 56;
  4245 : 238;
  4246 : 29;
  4247 : 222;
  4248 : 184;
  4249 : 9;
  4250 : 223;
  4251 : 246;
  4252 : 217;
  4253 : 246;
  4254 : 203;
  4255 : 6;
  4256 : 202;
  4257 : 215;
  4258 : 251;
  4259 : 218;
  4260 : 32;
  4261 : 212;
  4262 : 239;
  4263 : 13;
  4264 : 0;
  4265 : 4;
  4266 : 5;
  4267 : 243;
  4268 : 0;
  4269 : 7;
  4270 : 238;
  4271 : 210;
  4272 : 65;
  4273 : 55;
  4274 : 211;
  4275 : 1;
  4276 : 18;
  4277 : 15;
  4278 : 223;
  4279 : 15;
  4280 : 238;
  4281 : 214;
  4282 : 251;
  4283 : 209;
  4284 : 46;
  4285 : 250;
  4286 : 213;
  4287 : 199;
  4288 : 36;
  4289 : 15;
  4290 : 233;
  4291 : 234;
  4292 : 10;
  4293 : 40;
  4294 : 251;
  4295 : 6;
  4296 : 248;
  4297 : 41;
  4298 : 206;
  4299 : 36;
  4300 : 201;
  4301 : 7;
  4302 : 16;
  4303 : 7;
  4304 : 61;
  4305 : 32;
  4306 : 250;
  4307 : 6;
  4308 : 13;
  4309 : 253;
  4310 : 41;
  4311 : 16;
  4312 : 253;
  4313 : 36;
  4314 : 32;
  4315 : 253;
  4316 : 252;
  4317 : 246;
  4318 : 249;
  4319 : 27;
  4320 : 3;
  4321 : 255;
  4322 : 233;
  4323 : 3;
  4324 : 250;
  4325 : 3;
  4326 : 2;
  4327 : 0;
  4328 : 45;
  4329 : 226;
  4330 : 221;
  4331 : 189;
  4332 : 242;
  4333 : 253;
  4334 : 6;
  4335 : 233;
  4336 : 7;
  4337 : 242;
  4338 : 17;
  4339 : 236;
  4340 : 251;
  4341 : 178;
  4342 : 223;
  4343 : 6;
  4344 : 243;
  4345 : 247;
  4346 : 254;
  4347 : 235;
  4348 : 232;
  4349 : 6;
  4350 : 4;
  4351 : 42;
  4352 : 0;
  4353 : 239;
  4354 : 0;
  4355 : 0;
  4356 : 234;
  4357 : 234;
  4358 : 202;
  4359 : 0;
  4360 : 0;
  4361 : 240;
  4362 : 23;
  4363 : 0;
  4364 : 238;
  4365 : 0;
  4366 : 17;
  4367 : 0;
  4368 : 0;
  4369 : 242;
  4370 : 15;
  4371 : 0;
  4372 : 235;
  4373 : 0;
  4374 : 0;
  4375 : 0;
  4376 : 0;
  4377 : 0;
  4378 : 233;
  4379 : 0;
  4380 : 0;
  4381 : 240;
  4382 : 0;
  4383 : 0;
  4384 : 0;
  4385 : 0;
  4386 : 0;
  4387 : 0;
  4388 : 0;
  4389 : 0;
  4390 : 0;
  4391 : 0;
  4392 : 0;
  4393 : 240;
  4394 : 0;
  4395 : 0;
  4396 : 237;
  4397 : 0;
  4398 : 225;
  4399 : 231;
  4400 : 236;
  4401 : 14;
  4402 : 0;
  4403 : 226;
  4404 : 0;
  4405 : 0;
  4406 : 16;
  4407 : 0;
  4408 : 239;
  4409 : 20;
  4410 : 22;
  4411 : 0;
  4412 : 0;
  4413 : 0;
  4414 : 25;
  4415 : 0;
  4416 : 27;
  4417 : 10;
  4418 : 16;
  4419 : 242;
  4420 : 236;
  4421 : 237;
  4422 : 251;
  4423 : 252;
  4424 : 21;
  4425 : 218;
  4426 : 42;
  4427 : 240;
  4428 : 16;
  4429 : 212;
  4430 : 42;
  4431 : 30;
  4432 : 196;
  4433 : 255;
  4434 : 225;
  4435 : 206;
  4436 : 10;
  4437 : 223;
  4438 : 212;
  4439 : 24;
  4440 : 29;
  4441 : 228;
  4442 : 232;
  4443 : 52;
  4444 : 241;
  4445 : 44;
  4446 : 2;
  4447 : 217;
  4448 : 243;
  4449 : 34;
  4450 : 0;
  4451 : 214;
  4452 : 1;
  4453 : 17;
  4454 : 222;
  4455 : 237;
  4456 : 251;
  4457 : 204;
  4458 : 54;
  4459 : 12;
  4460 : 233;
  4461 : 244;
  4462 : 19;
  4463 : 5;
  4464 : 33;
  4465 : 188;
  4466 : 39;
  4467 : 225;
  4468 : 215;
  4469 : 149;
  4470 : 251;
  4471 : 212;
  4472 : 23;
  4473 : 227;
  4474 : 21;
  4475 : 18;
  4476 : 213;
  4477 : 7;
  4478 : 248;
  4479 : 234;
  4480 : 14;
  4481 : 241;
  4482 : 10;
  4483 : 2;
  4484 : 219;
  4485 : 210;
  4486 : 215;
  4487 : 3;
  4488 : 240;
  4489 : 0;
  4490 : 252;
  4491 : 252;
  4492 : 222;
  4493 : 235;
  4494 : 29;
  4495 : 239;
  4496 : 251;
  4497 : 10;
  4498 : 12;
  4499 : 209;
  4500 : 10;
  4501 : 9;
  4502 : 248;
  4503 : 21;
  4504 : 7;
  4505 : 240;
  4506 : 190;
  4507 : 255;
  4508 : 248;
  4509 : 7;
  4510 : 255;
  4511 : 12;
  4512 : 7;
  4513 : 204;
  4514 : 8;
  4515 : 4;
  4516 : 16;
  4517 : 254;
  4518 : 231;
  4519 : 217;
  4520 : 24;
  4521 : 165;
  4522 : 1;
  4523 : 147;
  4524 : 0;
  4525 : 212;
  4526 : 241;
  4527 : 236;
  4528 : 0;
  4529 : 232;
  4530 : 232;
  4531 : 3;
  4532 : 244;
  4533 : 188;
  4534 : 253;
  4535 : 252;
  4536 : 246;
  4537 : 242;
  4538 : 238;
  4539 : 255;
  4540 : 29;
  4541 : 13;
  4542 : 15;
  4543 : 7;
  4544 : 234;
  4545 : 1;
  4546 : 211;
  4547 : 0;
  4548 : 236;
  4549 : 241;
  4550 : 17;
  4551 : 219;
  4552 : 220;
  4553 : 239;
  4554 : 236;
  4555 : 227;
  4556 : 11;
  4557 : 240;
  4558 : 4;
  4559 : 14;
  4560 : 25;
  4561 : 2;
  4562 : 151;
  4563 : 11;
  4564 : 39;
  4565 : 246;
  4566 : 25;
  4567 : 239;
  4568 : 198;
  4569 : 203;
  4570 : 199;
  4571 : 212;
  4572 : 205;
  4573 : 231;
  4574 : 233;
  4575 : 4;
  4576 : 181;
  4577 : 219;
  4578 : 26;
  4579 : 255;
  4580 : 4;
  4581 : 204;
  4582 : 242;
  4583 : 18;
  4584 : 234;
  4585 : 6;
  4586 : 225;
  4587 : 10;
  4588 : 0;
  4589 : 6;
  4590 : 233;
  4591 : 242;
  4592 : 8;
  4593 : 34;
  4594 : 253;
  4595 : 255;
  4596 : 26;
  4597 : 254;
  4598 : 244;
  4599 : 225;
  4600 : 252;
  4601 : 203;
  4602 : 226;
  4603 : 14;
  4604 : 46;
  4605 : 215;
  4606 : 26;
  4607 : 220;
  4608 : 247;
  4609 : 34;
  4610 : 168;
  4611 : 22;
  4612 : 222;
  4613 : 81;
  4614 : 246;
  4615 : 232;
  4616 : 23;
  4617 : 27;
  4618 : 240;
  4619 : 46;
  4620 : 28;
  4621 : 10;
  4622 : 10;
  4623 : 33;
  4624 : 50;
  4625 : 242;
  4626 : 224;
  4627 : 72;
  4628 : 38;
  4629 : 239;
  4630 : 36;
  4631 : 205;
  4632 : 236;
  4633 : 11;
  4634 : 215;
  4635 : 1;
  4636 : 237;
  4637 : 246;
  4638 : 214;
  4639 : 8;
  4640 : 254;
  4641 : 237;
  4642 : 228;
  4643 : 213;
  4644 : 6;
  4645 : 225;
  4646 : 231;
  4647 : 2;
  4648 : 42;
  4649 : 195;
  4650 : 8;
  4651 : 248;
  4652 : 0;
  4653 : 44;
  4654 : 208;
  4655 : 207;
  4656 : 47;
  4657 : 45;
  4658 : 195;
  4659 : 244;
  4660 : 18;
  4661 : 230;
  4662 : 219;
  4663 : 18;
  4664 : 27;
  4665 : 254;
  4666 : 36;
  4667 : 180;
  4668 : 11;
  4669 : 19;
  4670 : 6;
  4671 : 4;
  4672 : 0;
  4673 : 0;
  4674 : 15;
  4675 : 0;
  4676 : 0;
  4677 : 0;
  4678 : 202;
  4679 : 0;
  4680 : 242;
  4681 : 241;
  4682 : 16;
  4683 : 0;
  4684 : 226;
  4685 : 0;
  4686 : 15;
  4687 : 0;
  4688 : 0;
  4689 : 0;
  4690 : 0;
  4691 : 0;
  4692 : 235;
  4693 : 0;
  4694 : 0;
  4695 : 0;
  4696 : 0;
  4697 : 0;
  4698 : 235;
  4699 : 25;
  4700 : 0;
  4701 : 0;
  4702 : 0;
  4703 : 0;
  4704 : 20;
  4705 : 0;
  4706 : 0;
  4707 : 0;
  4708 : 0;
  4709 : 0;
  4710 : 239;
  4711 : 236;
  4712 : 0;
  4713 : 0;
  4714 : 0;
  4715 : 0;
  4716 : 0;
  4717 : 0;
  4718 : 238;
  4719 : 233;
  4720 : 0;
  4721 : 0;
  4722 : 0;
  4723 : 233;
  4724 : 0;
  4725 : 0;
  4726 : 22;
  4727 : 0;
  4728 : 19;
  4729 : 0;
  4730 : 28;
  4731 : 0;
  4732 : 0;
  4733 : 0;
  4734 : 0;
  4735 : 0;
  4736 : 7;
  4737 : 9;
  4738 : 226;
  4739 : 251;
  4740 : 251;
  4741 : 26;
  4742 : 0;
  4743 : 11;
  4744 : 2;
  4745 : 27;
  4746 : 2;
  4747 : 41;
  4748 : 8;
  4749 : 4;
  4750 : 6;
  4751 : 239;
  4752 : 6;
  4753 : 1;
  4754 : 3;
  4755 : 18;
  4756 : 236;
  4757 : 6;
  4758 : 12;
  4759 : 25;
  4760 : 25;
  4761 : 10;
  4762 : 251;
  4763 : 13;
  4764 : 14;
  4765 : 255;
  4766 : 233;
  4767 : 18;
  4768 : 31;
  4769 : 182;
  4770 : 250;
  4771 : 30;
  4772 : 8;
  4773 : 9;
  4774 : 3;
  4775 : 197;
  4776 : 46;
  4777 : 249;
  4778 : 249;
  4779 : 185;
  4780 : 0;
  4781 : 202;
  4782 : 223;
  4783 : 241;
  4784 : 30;
  4785 : 187;
  4786 : 212;
  4787 : 252;
  4788 : 1;
  4789 : 190;
  4790 : 209;
  4791 : 6;
  4792 : 5;
  4793 : 16;
  4794 : 1;
  4795 : 220;
  4796 : 0;
  4797 : 16;
  4798 : 14;
  4799 : 51;
  4800 : 14;
  4801 : 10;
  4802 : 23;
  4803 : 247;
  4804 : 232;
  4805 : 210;
  4806 : 249;
  4807 : 3;
  4808 : 5;
  4809 : 235;
  4810 : 36;
  4811 : 247;
  4812 : 17;
  4813 : 217;
  4814 : 34;
  4815 : 3;
  4816 : 176;
  4817 : 250;
  4818 : 1;
  4819 : 192;
  4820 : 243;
  4821 : 227;
  4822 : 226;
  4823 : 47;
  4824 : 44;
  4825 : 215;
  4826 : 219;
  4827 : 31;
  4828 : 4;
  4829 : 47;
  4830 : 245;
  4831 : 206;
  4832 : 3;
  4833 : 11;
  4834 : 254;
  4835 : 250;
  4836 : 6;
  4837 : 19;
  4838 : 217;
  4839 : 1;
  4840 : 2;
  4841 : 198;
  4842 : 33;
  4843 : 230;
  4844 : 235;
  4845 : 242;
  4846 : 6;
  4847 : 16;
  4848 : 11;
  4849 : 137;
  4850 : 37;
  4851 : 251;
  4852 : 214;
  4853 : 151;
  4854 : 251;
  4855 : 223;
  4856 : 254;
  4857 : 243;
  4858 : 225;
  4859 : 254;
  4860 : 214;
  4861 : 250;
  4862 : 6;
  4863 : 7;
  4864 : 11;
  4865 : 38;
  4866 : 40;
  4867 : 36;
  4868 : 210;
  4869 : 32;
  4870 : 5;
  4871 : 227;
  4872 : 22;
  4873 : 233;
  4874 : 50;
  4875 : 8;
  4876 : 20;
  4877 : 244;
  4878 : 12;
  4879 : 49;
  4880 : 12;
  4881 : 226;
  4882 : 221;
  4883 : 7;
  4884 : 30;
  4885 : 247;
  4886 : 244;
  4887 : 3;
  4888 : 215;
  4889 : 21;
  4890 : 177;
  4891 : 0;
  4892 : 252;
  4893 : 17;
  4894 : 3;
  4895 : 3;
  4896 : 229;
  4897 : 230;
  4898 : 43;
  4899 : 33;
  4900 : 5;
  4901 : 10;
  4902 : 217;
  4903 : 186;
  4904 : 245;
  4905 : 198;
  4906 : 10;
  4907 : 4;
  4908 : 242;
  4909 : 31;
  4910 : 196;
  4911 : 1;
  4912 : 49;
  4913 : 23;
  4914 : 188;
  4915 : 194;
  4916 : 4;
  4917 : 248;
  4918 : 16;
  4919 : 6;
  4920 : 6;
  4921 : 231;
  4922 : 2;
  4923 : 198;
  4924 : 244;
  4925 : 231;
  4926 : 0;
  4927 : 253;
  4928 : 243;
  4929 : 8;
  4930 : 25;
  4931 : 217;
  4932 : 235;
  4933 : 243;
  4934 : 245;
  4935 : 248;
  4936 : 7;
  4937 : 213;
  4938 : 27;
  4939 : 223;
  4940 : 31;
  4941 : 207;
  4942 : 17;
  4943 : 20;
  4944 : 170;
  4945 : 252;
  4946 : 196;
  4947 : 229;
  4948 : 229;
  4949 : 227;
  4950 : 227;
  4951 : 40;
  4952 : 249;
  4953 : 0;
  4954 : 3;
  4955 : 19;
  4956 : 241;
  4957 : 15;
  4958 : 2;
  4959 : 194;
  4960 : 240;
  4961 : 38;
  4962 : 252;
  4963 : 213;
  4964 : 250;
  4965 : 19;
  4966 : 225;
  4967 : 5;
  4968 : 241;
  4969 : 223;
  4970 : 52;
  4971 : 249;
  4972 : 240;
  4973 : 15;
  4974 : 32;
  4975 : 8;
  4976 : 7;
  4977 : 199;
  4978 : 35;
  4979 : 252;
  4980 : 211;
  4981 : 193;
  4982 : 254;
  4983 : 192;
  4984 : 4;
  4985 : 243;
  4986 : 11;
  4987 : 2;
  4988 : 203;
  4989 : 200;
  4990 : 4;
  4991 : 8;
  4992 : 246;
  4993 : 1;
  4994 : 13;
  4995 : 21;
  4996 : 200;
  4997 : 226;
  4998 : 203;
  4999 : 247;
  5000 : 229;
  5001 : 252;
  5002 : 30;
  5003 : 241;
  5004 : 198;
  5005 : 250;
  5006 : 8;
  5007 : 245;
  5008 : 222;
  5009 : 217;
  5010 : 12;
  5011 : 250;
  5012 : 245;
  5013 : 235;
  5014 : 234;
  5015 : 1;
  5016 : 9;
  5017 : 255;
  5018 : 163;
  5019 : 3;
  5020 : 1;
  5021 : 3;
  5022 : 43;
  5023 : 229;
  5024 : 21;
  5025 : 251;
  5026 : 11;
  5027 : 7;
  5028 : 254;
  5029 : 255;
  5030 : 203;
  5031 : 189;
  5032 : 3;
  5033 : 208;
  5034 : 2;
  5035 : 245;
  5036 : 0;
  5037 : 1;
  5038 : 216;
  5039 : 206;
  5040 : 230;
  5041 : 1;
  5042 : 255;
  5043 : 4;
  5044 : 255;
  5045 : 254;
  5046 : 24;
  5047 : 7;
  5048 : 246;
  5049 : 248;
  5050 : 7;
  5051 : 5;
  5052 : 18;
  5053 : 16;
  5054 : 3;
  5055 : 251;
  5056 : 234;
  5057 : 234;
  5058 : 24;
  5059 : 9;
  5060 : 1;
  5061 : 234;
  5062 : 242;
  5063 : 254;
  5064 : 226;
  5065 : 248;
  5066 : 250;
  5067 : 252;
  5068 : 245;
  5069 : 250;
  5070 : 12;
  5071 : 220;
  5072 : 204;
  5073 : 0;
  5074 : 201;
  5075 : 249;
  5076 : 8;
  5077 : 1;
  5078 : 208;
  5079 : 246;
  5080 : 235;
  5081 : 6;
  5082 : 196;
  5083 : 228;
  5084 : 249;
  5085 : 220;
  5086 : 9;
  5087 : 10;
  5088 : 241;
  5089 : 3;
  5090 : 28;
  5091 : 37;
  5092 : 246;
  5093 : 243;
  5094 : 250;
  5095 : 227;
  5096 : 21;
  5097 : 59;
  5098 : 255;
  5099 : 58;
  5100 : 0;
  5101 : 243;
  5102 : 243;
  5103 : 214;
  5104 : 216;
  5105 : 1;
  5106 : 246;
  5107 : 207;
  5108 : 34;
  5109 : 252;
  5110 : 250;
  5111 : 187;
  5112 : 239;
  5113 : 238;
  5114 : 0;
  5115 : 244;
  5116 : 33;
  5117 : 248;
  5118 : 20;
  5119 : 254;
  5120 : 253;
  5121 : 255;
  5122 : 146;
  5123 : 255;
  5124 : 9;
  5125 : 20;
  5126 : 235;
  5127 : 207;
  5128 : 220;
  5129 : 237;
  5130 : 0;
  5131 : 230;
  5132 : 37;
  5133 : 237;
  5134 : 8;
  5135 : 32;
  5136 : 30;
  5137 : 249;
  5138 : 180;
  5139 : 16;
  5140 : 21;
  5141 : 4;
  5142 : 18;
  5143 : 246;
  5144 : 199;
  5145 : 210;
  5146 : 255;
  5147 : 231;
  5148 : 212;
  5149 : 216;
  5150 : 247;
  5151 : 244;
  5152 : 189;
  5153 : 252;
  5154 : 12;
  5155 : 242;
  5156 : 36;
  5157 : 217;
  5158 : 11;
  5159 : 7;
  5160 : 6;
  5161 : 222;
  5162 : 254;
  5163 : 219;
  5164 : 0;
  5165 : 248;
  5166 : 242;
  5167 : 230;
  5168 : 47;
  5169 : 5;
  5170 : 11;
  5171 : 3;
  5172 : 18;
  5173 : 252;
  5174 : 248;
  5175 : 232;
  5176 : 11;
  5177 : 202;
  5178 : 230;
  5179 : 252;
  5180 : 42;
  5181 : 250;
  5182 : 0;
  5183 : 248;
  5184 : 253;
  5185 : 6;
  5186 : 29;
  5187 : 1;
  5188 : 5;
  5189 : 52;
  5190 : 172;
  5191 : 247;
  5192 : 248;
  5193 : 226;
  5194 : 235;
  5195 : 4;
  5196 : 13;
  5197 : 167;
  5198 : 250;
  5199 : 249;
  5200 : 223;
  5201 : 245;
  5202 : 191;
  5203 : 14;
  5204 : 237;
  5205 : 247;
  5206 : 251;
  5207 : 22;
  5208 : 249;
  5209 : 15;
  5210 : 14;
  5211 : 33;
  5212 : 248;
  5213 : 241;
  5214 : 37;
  5215 : 184;
  5216 : 4;
  5217 : 46;
  5218 : 16;
  5219 : 1;
  5220 : 237;
  5221 : 255;
  5222 : 1;
  5223 : 247;
  5224 : 241;
  5225 : 21;
  5226 : 9;
  5227 : 33;
  5228 : 0;
  5229 : 48;
  5230 : 9;
  5231 : 234;
  5232 : 14;
  5233 : 13;
  5234 : 250;
  5235 : 220;
  5236 : 225;
  5237 : 238;
  5238 : 8;
  5239 : 0;
  5240 : 28;
  5241 : 237;
  5242 : 43;
  5243 : 251;
  5244 : 215;
  5245 : 249;
  5246 : 37;
  5247 : 8;
  5248 : 6;
  5249 : 247;
  5250 : 252;
  5251 : 172;
  5252 : 8;
  5253 : 8;
  5254 : 251;
  5255 : 245;
  5256 : 247;
  5257 : 5;
  5258 : 155;
  5259 : 205;
  5260 : 203;
  5261 : 1;
  5262 : 238;
  5263 : 240;
  5264 : 41;
  5265 : 24;
  5266 : 215;
  5267 : 225;
  5268 : 251;
  5269 : 1;
  5270 : 30;
  5271 : 219;
  5272 : 228;
  5273 : 251;
  5274 : 49;
  5275 : 223;
  5276 : 224;
  5277 : 240;
  5278 : 220;
  5279 : 17;
  5280 : 255;
  5281 : 2;
  5282 : 171;
  5283 : 215;
  5284 : 5;
  5285 : 232;
  5286 : 5;
  5287 : 1;
  5288 : 38;
  5289 : 13;
  5290 : 222;
  5291 : 220;
  5292 : 0;
  5293 : 255;
  5294 : 5;
  5295 : 252;
  5296 : 5;
  5297 : 0;
  5298 : 12;
  5299 : 255;
  5300 : 254;
  5301 : 244;
  5302 : 221;
  5303 : 247;
  5304 : 224;
  5305 : 214;
  5306 : 229;
  5307 : 211;
  5308 : 222;
  5309 : 208;
  5310 : 207;
  5311 : 14;
  5312 : 231;
  5313 : 244;
  5314 : 13;
  5315 : 30;
  5316 : 247;
  5317 : 219;
  5318 : 5;
  5319 : 0;
  5320 : 243;
  5321 : 218;
  5322 : 244;
  5323 : 253;
  5324 : 3;
  5325 : 227;
  5326 : 13;
  5327 : 13;
  5328 : 253;
  5329 : 253;
  5330 : 225;
  5331 : 255;
  5332 : 1;
  5333 : 255;
  5334 : 19;
  5335 : 244;
  5336 : 218;
  5337 : 7;
  5338 : 181;
  5339 : 9;
  5340 : 247;
  5341 : 247;
  5342 : 254;
  5343 : 237;
  5344 : 252;
  5345 : 246;
  5346 : 23;
  5347 : 42;
  5348 : 4;
  5349 : 208;
  5350 : 230;
  5351 : 251;
  5352 : 251;
  5353 : 5;
  5354 : 231;
  5355 : 15;
  5356 : 0;
  5357 : 251;
  5358 : 232;
  5359 : 227;
  5360 : 231;
  5361 : 39;
  5362 : 254;
  5363 : 233;
  5364 : 24;
  5365 : 4;
  5366 : 36;
  5367 : 231;
  5368 : 12;
  5369 : 241;
  5370 : 229;
  5371 : 10;
  5372 : 22;
  5373 : 8;
  5374 : 14;
  5375 : 243;
  5376 : 0;
  5377 : 255;
  5378 : 200;
  5379 : 17;
  5380 : 232;
  5381 : 247;
  5382 : 4;
  5383 : 166;
  5384 : 209;
  5385 : 11;
  5386 : 247;
  5387 : 226;
  5388 : 53;
  5389 : 12;
  5390 : 251;
  5391 : 30;
  5392 : 0;
  5393 : 254;
  5394 : 174;
  5395 : 250;
  5396 : 11;
  5397 : 245;
  5398 : 3;
  5399 : 233;
  5400 : 176;
  5401 : 212;
  5402 : 206;
  5403 : 202;
  5404 : 199;
  5405 : 204;
  5406 : 209;
  5407 : 5;
  5408 : 178;
  5409 : 192;
  5410 : 249;
  5411 : 231;
  5412 : 3;
  5413 : 197;
  5414 : 245;
  5415 : 248;
  5416 : 251;
  5417 : 8;
  5418 : 233;
  5419 : 13;
  5420 : 0;
  5421 : 9;
  5422 : 244;
  5423 : 223;
  5424 : 19;
  5425 : 19;
  5426 : 238;
  5427 : 250;
  5428 : 37;
  5429 : 250;
  5430 : 236;
  5431 : 230;
  5432 : 231;
  5433 : 191;
  5434 : 230;
  5435 : 246;
  5436 : 15;
  5437 : 221;
  5438 : 217;
  5439 : 208;
  5440 : 2;
  5441 : 6;
  5442 : 33;
  5443 : 3;
  5444 : 237;
  5445 : 35;
  5446 : 185;
  5447 : 241;
  5448 : 251;
  5449 : 224;
  5450 : 4;
  5451 : 2;
  5452 : 251;
  5453 : 154;
  5454 : 11;
  5455 : 29;
  5456 : 239;
  5457 : 218;
  5458 : 213;
  5459 : 42;
  5460 : 237;
  5461 : 230;
  5462 : 254;
  5463 : 3;
  5464 : 253;
  5465 : 16;
  5466 : 249;
  5467 : 7;
  5468 : 252;
  5469 : 6;
  5470 : 46;
  5471 : 187;
  5472 : 3;
  5473 : 29;
  5474 : 3;
  5475 : 238;
  5476 : 228;
  5477 : 244;
  5478 : 218;
  5479 : 246;
  5480 : 211;
  5481 : 250;
  5482 : 15;
  5483 : 42;
  5484 : 0;
  5485 : 47;
  5486 : 242;
  5487 : 228;
  5488 : 34;
  5489 : 250;
  5490 : 249;
  5491 : 215;
  5492 : 222;
  5493 : 11;
  5494 : 23;
  5495 : 0;
  5496 : 19;
  5497 : 218;
  5498 : 36;
  5499 : 251;
  5500 : 211;
  5501 : 226;
  5502 : 24;
  5503 : 7;
  5504 : 236;
  5505 : 0;
  5506 : 3;
  5507 : 6;
  5508 : 195;
  5509 : 4;
  5510 : 198;
  5511 : 253;
  5512 : 247;
  5513 : 233;
  5514 : 5;
  5515 : 248;
  5516 : 222;
  5517 : 231;
  5518 : 10;
  5519 : 27;
  5520 : 223;
  5521 : 236;
  5522 : 12;
  5523 : 37;
  5524 : 250;
  5525 : 238;
  5526 : 253;
  5527 : 248;
  5528 : 231;
  5529 : 1;
  5530 : 188;
  5531 : 249;
  5532 : 6;
  5533 : 233;
  5534 : 19;
  5535 : 225;
  5536 : 24;
  5537 : 3;
  5538 : 6;
  5539 : 6;
  5540 : 8;
  5541 : 3;
  5542 : 207;
  5543 : 214;
  5544 : 237;
  5545 : 240;
  5546 : 22;
  5547 : 31;
  5548 : 238;
  5549 : 44;
  5550 : 215;
  5551 : 229;
  5552 : 4;
  5553 : 36;
  5554 : 228;
  5555 : 234;
  5556 : 236;
  5557 : 2;
  5558 : 250;
  5559 : 25;
  5560 : 253;
  5561 : 254;
  5562 : 3;
  5563 : 244;
  5564 : 10;
  5565 : 6;
  5566 : 17;
  5567 : 255;
  5568 : 6;
  5569 : 254;
  5570 : 37;
  5571 : 241;
  5572 : 20;
  5573 : 17;
  5574 : 145;
  5575 : 17;
  5576 : 227;
  5577 : 244;
  5578 : 220;
  5579 : 254;
  5580 : 252;
  5581 : 194;
  5582 : 15;
  5583 : 235;
  5584 : 199;
  5585 : 22;
  5586 : 221;
  5587 : 32;
  5588 : 246;
  5589 : 242;
  5590 : 236;
  5591 : 7;
  5592 : 244;
  5593 : 12;
  5594 : 6;
  5595 : 251;
  5596 : 241;
  5597 : 208;
  5598 : 49;
  5599 : 230;
  5600 : 248;
  5601 : 30;
  5602 : 246;
  5603 : 250;
  5604 : 253;
  5605 : 11;
  5606 : 213;
  5607 : 244;
  5608 : 239;
  5609 : 24;
  5610 : 4;
  5611 : 51;
  5612 : 0;
  5613 : 23;
  5614 : 14;
  5615 : 12;
  5616 : 12;
  5617 : 249;
  5618 : 21;
  5619 : 219;
  5620 : 254;
  5621 : 220;
  5622 : 0;
  5623 : 187;
  5624 : 0;
  5625 : 243;
  5626 : 6;
  5627 : 251;
  5628 : 220;
  5629 : 211;
  5630 : 34;
  5631 : 52;
  5632 : 0;
  5633 : 0;
  5634 : 0;
  5635 : 0;
  5636 : 240;
  5637 : 0;
  5638 : 221;
  5639 : 241;
  5640 : 0;
  5641 : 0;
  5642 : 0;
  5643 : 0;
  5644 : 223;
  5645 : 0;
  5646 : 0;
  5647 : 0;
  5648 : 241;
  5649 : 0;
  5650 : 0;
  5651 : 16;
  5652 : 0;
  5653 : 233;
  5654 : 0;
  5655 : 0;
  5656 : 0;
  5657 : 18;
  5658 : 223;
  5659 : 240;
  5660 : 0;
  5661 : 0;
  5662 : 239;
  5663 : 236;
  5664 : 21;
  5665 : 0;
  5666 : 0;
  5667 : 0;
  5668 : 20;
  5669 : 0;
  5670 : 0;
  5671 : 232;
  5672 : 241;
  5673 : 223;
  5674 : 0;
  5675 : 0;
  5676 : 0;
  5677 : 0;
  5678 : 230;
  5679 : 239;
  5680 : 0;
  5681 : 23;
  5682 : 0;
  5683 : 0;
  5684 : 241;
  5685 : 0;
  5686 : 0;
  5687 : 0;
  5688 : 0;
  5689 : 19;
  5690 : 0;
  5691 : 14;
  5692 : 0;
  5693 : 19;
  5694 : 20;
  5695 : 230;
  5696 : 249;
  5697 : 12;
  5698 : 254;
  5699 : 12;
  5700 : 235;
  5701 : 1;
  5702 : 229;
  5703 : 254;
  5704 : 4;
  5705 : 2;
  5706 : 26;
  5707 : 254;
  5708 : 245;
  5709 : 228;
  5710 : 25;
  5711 : 4;
  5712 : 231;
  5713 : 207;
  5714 : 253;
  5715 : 21;
  5716 : 2;
  5717 : 255;
  5718 : 3;
  5719 : 9;
  5720 : 1;
  5721 : 22;
  5722 : 190;
  5723 : 10;
  5724 : 3;
  5725 : 22;
  5726 : 28;
  5727 : 220;
  5728 : 11;
  5729 : 249;
  5730 : 11;
  5731 : 14;
  5732 : 1;
  5733 : 10;
  5734 : 198;
  5735 : 212;
  5736 : 252;
  5737 : 207;
  5738 : 14;
  5739 : 250;
  5740 : 0;
  5741 : 26;
  5742 : 0;
  5743 : 252;
  5744 : 17;
  5745 : 241;
  5746 : 246;
  5747 : 0;
  5748 : 11;
  5749 : 204;
  5750 : 250;
  5751 : 4;
  5752 : 9;
  5753 : 234;
  5754 : 5;
  5755 : 247;
  5756 : 237;
  5757 : 254;
  5758 : 18;
  5759 : 255;
  5760 : 239;
  5761 : 218;
  5762 : 252;
  5763 : 4;
  5764 : 3;
  5765 : 226;
  5766 : 1;
  5767 : 249;
  5768 : 250;
  5769 : 215;
  5770 : 247;
  5771 : 252;
  5772 : 21;
  5773 : 5;
  5774 : 8;
  5775 : 1;
  5776 : 228;
  5777 : 251;
  5778 : 187;
  5779 : 0;
  5780 : 6;
  5781 : 27;
  5782 : 248;
  5783 : 241;
  5784 : 221;
  5785 : 240;
  5786 : 219;
  5787 : 228;
  5788 : 253;
  5789 : 235;
  5790 : 255;
  5791 : 7;
  5792 : 189;
  5793 : 232;
  5794 : 254;
  5795 : 4;
  5796 : 23;
  5797 : 198;
  5798 : 0;
  5799 : 218;
  5800 : 18;
  5801 : 55;
  5802 : 249;
  5803 : 25;
  5804 : 240;
  5805 : 244;
  5806 : 10;
  5807 : 239;
  5808 : 217;
  5809 : 2;
  5810 : 224;
  5811 : 210;
  5812 : 56;
  5813 : 255;
  5814 : 247;
  5815 : 201;
  5816 : 245;
  5817 : 246;
  5818 : 240;
  5819 : 243;
  5820 : 33;
  5821 : 5;
  5822 : 5;
  5823 : 17;
  5824 : 232;
  5825 : 199;
  5826 : 25;
  5827 : 253;
  5828 : 30;
  5829 : 38;
  5830 : 161;
  5831 : 254;
  5832 : 247;
  5833 : 249;
  5834 : 215;
  5835 : 1;
  5836 : 243;
  5837 : 171;
  5838 : 18;
  5839 : 180;
  5840 : 254;
  5841 : 29;
  5842 : 216;
  5843 : 14;
  5844 : 236;
  5845 : 248;
  5846 : 253;
  5847 : 250;
  5848 : 247;
  5849 : 14;
  5850 : 10;
  5851 : 238;
  5852 : 246;
  5853 : 209;
  5854 : 35;
  5855 : 251;
  5856 : 247;
  5857 : 30;
  5858 : 238;
  5859 : 0;
  5860 : 255;
  5861 : 0;
  5862 : 247;
  5863 : 222;
  5864 : 5;
  5865 : 41;
  5866 : 2;
  5867 : 40;
  5868 : 238;
  5869 : 2;
  5870 : 6;
  5871 : 233;
  5872 : 3;
  5873 : 18;
  5874 : 251;
  5875 : 226;
  5876 : 252;
  5877 : 13;
  5878 : 252;
  5879 : 206;
  5880 : 2;
  5881 : 250;
  5882 : 255;
  5883 : 255;
  5884 : 227;
  5885 : 249;
  5886 : 51;
  5887 : 37;
  5888 : 2;
  5889 : 21;
  5890 : 204;
  5891 : 248;
  5892 : 208;
  5893 : 6;
  5894 : 246;
  5895 : 251;
  5896 : 16;
  5897 : 11;
  5898 : 7;
  5899 : 3;
  5900 : 2;
  5901 : 255;
  5902 : 33;
  5903 : 253;
  5904 : 30;
  5905 : 248;
  5906 : 238;
  5907 : 14;
  5908 : 16;
  5909 : 238;
  5910 : 36;
  5911 : 247;
  5912 : 243;
  5913 : 25;
  5914 : 3;
  5915 : 3;
  5916 : 246;
  5917 : 237;
  5918 : 230;
  5919 : 12;
  5920 : 0;
  5921 : 220;
  5922 : 6;
  5923 : 231;
  5924 : 35;
  5925 : 246;
  5926 : 221;
  5927 : 225;
  5928 : 252;
  5929 : 206;
  5930 : 255;
  5931 : 226;
  5932 : 0;
  5933 : 22;
  5934 : 229;
  5935 : 228;
  5936 : 14;
  5937 : 25;
  5938 : 184;
  5939 : 8;
  5940 : 253;
  5941 : 246;
  5942 : 241;
  5943 : 30;
  5944 : 250;
  5945 : 5;
  5946 : 0;
  5947 : 239;
  5948 : 250;
  5949 : 10;
  5950 : 223;
  5951 : 251;
  5952 : 31;
  5953 : 28;
  5954 : 247;
  5955 : 251;
  5956 : 253;
  5957 : 251;
  5958 : 250;
  5959 : 26;
  5960 : 255;
  5961 : 251;
  5962 : 239;
  5963 : 34;
  5964 : 244;
  5965 : 4;
  5966 : 27;
  5967 : 4;
  5968 : 47;
  5969 : 32;
  5970 : 254;
  5971 : 254;
  5972 : 0;
  5973 : 3;
  5974 : 255;
  5975 : 15;
  5976 : 34;
  5977 : 19;
  5978 : 15;
  5979 : 5;
  5980 : 6;
  5981 : 22;
  5982 : 238;
  5983 : 26;
  5984 : 4;
  5985 : 211;
  5986 : 227;
  5987 : 17;
  5988 : 15;
  5989 : 32;
  5990 : 5;
  5991 : 253;
  5992 : 51;
  5993 : 241;
  5994 : 254;
  5995 : 202;
  5996 : 0;
  5997 : 199;
  5998 : 17;
  5999 : 242;
  6000 : 4;
  6001 : 185;
  6002 : 10;
  6003 : 228;
  6004 : 254;
  6005 : 178;
  6006 : 236;
  6007 : 239;
  6008 : 255;
  6009 : 11;
  6010 : 223;
  6011 : 252;
  6012 : 2;
  6013 : 37;
  6014 : 5;
  6015 : 14;
  6016 : 226;
  6017 : 27;
  6018 : 249;
  6019 : 20;
  6020 : 237;
  6021 : 34;
  6022 : 250;
  6023 : 247;
  6024 : 6;
  6025 : 230;
  6026 : 31;
  6027 : 252;
  6028 : 8;
  6029 : 251;
  6030 : 1;
  6031 : 41;
  6032 : 242;
  6033 : 190;
  6034 : 218;
  6035 : 10;
  6036 : 9;
  6037 : 4;
  6038 : 18;
  6039 : 9;
  6040 : 255;
  6041 : 9;
  6042 : 214;
  6043 : 4;
  6044 : 7;
  6045 : 15;
  6046 : 23;
  6047 : 204;
  6048 : 27;
  6049 : 0;
  6050 : 40;
  6051 : 8;
  6052 : 246;
  6053 : 14;
  6054 : 175;
  6055 : 218;
  6056 : 245;
  6057 : 217;
  6058 : 15;
  6059 : 1;
  6060 : 0;
  6061 : 53;
  6062 : 200;
  6063 : 3;
  6064 : 38;
  6065 : 9;
  6066 : 247;
  6067 : 232;
  6068 : 238;
  6069 : 245;
  6070 : 0;
  6071 : 255;
  6072 : 3;
  6073 : 220;
  6074 : 6;
  6075 : 255;
  6076 : 167;
  6077 : 253;
  6078 : 16;
  6079 : 229;
  6080 : 249;
  6081 : 254;
  6082 : 1;
  6083 : 9;
  6084 : 197;
  6085 : 0;
  6086 : 208;
  6087 : 6;
  6088 : 254;
  6089 : 8;
  6090 : 11;
  6091 : 6;
  6092 : 236;
  6093 : 246;
  6094 : 17;
  6095 : 253;
  6096 : 249;
  6097 : 231;
  6098 : 7;
  6099 : 15;
  6100 : 251;
  6101 : 234;
  6102 : 22;
  6103 : 244;
  6104 : 2;
  6105 : 0;
  6106 : 188;
  6107 : 5;
  6108 : 26;
  6109 : 247;
  6110 : 2;
  6111 : 8;
  6112 : 14;
  6113 : 230;
  6114 : 24;
  6115 : 3;
  6116 : 252;
  6117 : 246;
  6118 : 222;
  6119 : 177;
  6120 : 247;
  6121 : 202;
  6122 : 246;
  6123 : 8;
  6124 : 0;
  6125 : 28;
  6126 : 232;
  6127 : 193;
  6128 : 7;
  6129 : 34;
  6130 : 5;
  6131 : 219;
  6132 : 246;
  6133 : 252;
  6134 : 240;
  6135 : 39;
  6136 : 4;
  6137 : 3;
  6138 : 21;
  6139 : 248;
  6140 : 10;
  6141 : 25;
  6142 : 251;
  6143 : 5;
  6144 : 255;
  6145 : 244;
  6146 : 4;
  6147 : 255;
  6148 : 255;
  6149 : 244;
  6150 : 252;
  6151 : 235;
  6152 : 0;
  6153 : 1;
  6154 : 253;
  6155 : 3;
  6156 : 4;
  6157 : 0;
  6158 : 202;
  6159 : 227;
  6160 : 254;
  6161 : 22;
  6162 : 7;
  6163 : 254;
  6164 : 3;
  6165 : 14;
  6166 : 0;
  6167 : 244;
  6168 : 10;
  6169 : 219;
  6170 : 4;
  6171 : 1;
  6172 : 2;
  6173 : 1;
  6174 : 5;
  6175 : 19;
  6176 : 21;
  6177 : 6;
  6178 : 3;
  6179 : 14;
  6180 : 235;
  6181 : 0;
  6182 : 235;
  6183 : 233;
  6184 : 1;
  6185 : 4;
  6186 : 222;
  6187 : 6;
  6188 : 0;
  6189 : 254;
  6190 : 252;
  6191 : 244;
  6192 : 5;
  6193 : 235;
  6194 : 1;
  6195 : 244;
  6196 : 254;
  6197 : 218;
  6198 : 220;
  6199 : 5;
  6200 : 5;
  6201 : 0;
  6202 : 242;
  6203 : 252;
  6204 : 254;
  6205 : 1;
  6206 : 237;
  6207 : 5;
  6208 : 240;
  6209 : 7;
  6210 : 19;
  6211 : 2;
  6212 : 3;
  6213 : 1;
  6214 : 243;
  6215 : 3;
  6216 : 226;
  6217 : 13;
  6218 : 210;
  6219 : 227;
  6220 : 222;
  6221 : 2;
  6222 : 208;
  6223 : 216;
  6224 : 227;
  6225 : 3;
  6226 : 6;
  6227 : 24;
  6228 : 244;
  6229 : 233;
  6230 : 240;
  6231 : 232;
  6232 : 3;
  6233 : 215;
  6234 : 0;
  6235 : 7;
  6236 : 251;
  6237 : 5;
  6238 : 241;
  6239 : 20;
  6240 : 23;
  6241 : 252;
  6242 : 234;
  6243 : 6;
  6244 : 246;
  6245 : 4;
  6246 : 5;
  6247 : 228;
  6248 : 1;
  6249 : 20;
  6250 : 201;
  6251 : 16;
  6252 : 237;
  6253 : 219;
  6254 : 9;
  6255 : 251;
  6256 : 4;
  6257 : 229;
  6258 : 213;
  6259 : 6;
  6260 : 11;
  6261 : 1;
  6262 : 252;
  6263 : 9;
  6264 : 0;
  6265 : 216;
  6266 : 234;
  6267 : 245;
  6268 : 9;
  6269 : 255;
  6270 : 5;
  6271 : 253;
  6272 : 251;
  6273 : 235;
  6274 : 248;
  6275 : 231;
  6276 : 234;
  6277 : 251;
  6278 : 198;
  6279 : 244;
  6280 : 253;
  6281 : 7;
  6282 : 6;
  6283 : 23;
  6284 : 7;
  6285 : 218;
  6286 : 180;
  6287 : 254;
  6288 : 6;
  6289 : 50;
  6290 : 245;
  6291 : 195;
  6292 : 6;
  6293 : 255;
  6294 : 29;
  6295 : 5;
  6296 : 237;
  6297 : 216;
  6298 : 42;
  6299 : 3;
  6300 : 35;
  6301 : 0;
  6302 : 5;
  6303 : 226;
  6304 : 216;
  6305 : 254;
  6306 : 3;
  6307 : 250;
  6308 : 198;
  6309 : 205;
  6310 : 207;
  6311 : 240;
  6312 : 176;
  6313 : 189;
  6314 : 249;
  6315 : 224;
  6316 : 0;
  6317 : 28;
  6318 : 2;
  6319 : 0;
  6320 : 253;
  6321 : 18;
  6322 : 248;
  6323 : 243;
  6324 : 220;
  6325 : 3;
  6326 : 218;
  6327 : 5;
  6328 : 31;
  6329 : 32;
  6330 : 199;
  6331 : 252;
  6332 : 237;
  6333 : 204;
  6334 : 242;
  6335 : 230;
  6336 : 22;
  6337 : 246;
  6338 : 37;
  6339 : 1;
  6340 : 21;
  6341 : 253;
  6342 : 228;
  6343 : 253;
  6344 : 209;
  6345 : 211;
  6346 : 208;
  6347 : 20;
  6348 : 217;
  6349 : 12;
  6350 : 251;
  6351 : 206;
  6352 : 0;
  6353 : 38;
  6354 : 1;
  6355 : 232;
  6356 : 243;
  6357 : 218;
  6358 : 246;
  6359 : 5;
  6360 : 12;
  6361 : 216;
  6362 : 6;
  6363 : 210;
  6364 : 230;
  6365 : 225;
  6366 : 0;
  6367 : 244;
  6368 : 194;
  6369 : 11;
  6370 : 244;
  6371 : 0;
  6372 : 253;
  6373 : 177;
  6374 : 168;
  6375 : 202;
  6376 : 252;
  6377 : 33;
  6378 : 24;
  6379 : 250;
  6380 : 241;
  6381 : 224;
  6382 : 29;
  6383 : 10;
  6384 : 253;
  6385 : 210;
  6386 : 233;
  6387 : 191;
  6388 : 6;
  6389 : 172;
  6390 : 212;
  6391 : 229;
  6392 : 206;
  6393 : 13;
  6394 : 239;
  6395 : 3;
  6396 : 27;
  6397 : 226;
  6398 : 250;
  6399 : 245;
  6400 : 0;
  6401 : 0;
  6402 : 0;
  6403 : 0;
  6404 : 25;
  6405 : 0;
  6406 : 0;
  6407 : 0;
  6408 : 0;
  6409 : 0;
  6410 : 230;
  6411 : 228;
  6412 : 0;
  6413 : 15;
  6414 : 215;
  6415 : 237;
  6416 : 0;
  6417 : 21;
  6418 : 0;
  6419 : 0;
  6420 : 0;
  6421 : 0;
  6422 : 0;
  6423 : 234;
  6424 : 0;
  6425 : 225;
  6426 : 0;
  6427 : 0;
  6428 : 0;
  6429 : 15;
  6430 : 0;
  6431 : 0;
  6432 : 0;
  6433 : 0;
  6434 : 0;
  6435 : 0;
  6436 : 242;
  6437 : 0;
  6438 : 0;
  6439 : 0;
  6440 : 0;
  6441 : 28;
  6442 : 220;
  6443 : 242;
  6444 : 0;
  6445 : 0;
  6446 : 0;
  6447 : 0;
  6448 : 0;
  6449 : 0;
  6450 : 240;
  6451 : 241;
  6452 : 15;
  6453 : 235;
  6454 : 0;
  6455 : 239;
  6456 : 0;
  6457 : 233;
  6458 : 224;
  6459 : 234;
  6460 : 0;
  6461 : 0;
  6462 : 240;
  6463 : 0;
  6464 : 218;
  6465 : 62;
  6466 : 191;
  6467 : 252;
  6468 : 214;
  6469 : 248;
  6470 : 236;
  6471 : 33;
  6472 : 184;
  6473 : 23;
  6474 : 200;
  6475 : 216;
  6476 : 236;
  6477 : 218;
  6478 : 49;
  6479 : 253;
  6480 : 181;
  6481 : 241;
  6482 : 4;
  6483 : 5;
  6484 : 223;
  6485 : 254;
  6486 : 204;
  6487 : 2;
  6488 : 28;
  6489 : 0;
  6490 : 187;
  6491 : 2;
  6492 : 221;
  6493 : 205;
  6494 : 243;
  6495 : 248;
  6496 : 223;
  6497 : 171;
  6498 : 13;
  6499 : 241;
  6500 : 30;
  6501 : 25;
  6502 : 41;
  6503 : 219;
  6504 : 211;
  6505 : 21;
  6506 : 206;
  6507 : 222;
  6508 : 0;
  6509 : 182;
  6510 : 239;
  6511 : 52;
  6512 : 222;
  6513 : 219;
  6514 : 249;
  6515 : 250;
  6516 : 210;
  6517 : 43;
  6518 : 20;
  6519 : 251;
  6520 : 224;
  6521 : 227;
  6522 : 245;
  6523 : 245;
  6524 : 251;
  6525 : 0;
  6526 : 0;
  6527 : 5;
  6528 : 241;
  6529 : 215;
  6530 : 254;
  6531 : 12;
  6532 : 4;
  6533 : 255;
  6534 : 227;
  6535 : 56;
  6536 : 251;
  6537 : 254;
  6538 : 236;
  6539 : 242;
  6540 : 1;
  6541 : 195;
  6542 : 8;
  6543 : 35;
  6544 : 20;
  6545 : 253;
  6546 : 2;
  6547 : 228;
  6548 : 249;
  6549 : 31;
  6550 : 239;
  6551 : 241;
  6552 : 213;
  6553 : 7;
  6554 : 6;
  6555 : 18;
  6556 : 205;
  6557 : 235;
  6558 : 1;
  6559 : 241;
  6560 : 241;
  6561 : 240;
  6562 : 35;
  6563 : 20;
  6564 : 50;
  6565 : 211;
  6566 : 247;
  6567 : 190;
  6568 : 248;
  6569 : 242;
  6570 : 240;
  6571 : 3;
  6572 : 0;
  6573 : 13;
  6574 : 243;
  6575 : 9;
  6576 : 194;
  6577 : 220;
  6578 : 198;
  6579 : 240;
  6580 : 13;
  6581 : 236;
  6582 : 13;
  6583 : 225;
  6584 : 241;
  6585 : 216;
  6586 : 251;
  6587 : 7;
  6588 : 254;
  6589 : 231;
  6590 : 15;
  6591 : 28;
  6592 : 19;
  6593 : 187;
  6594 : 237;
  6595 : 223;
  6596 : 229;
  6597 : 243;
  6598 : 229;
  6599 : 193;
  6600 : 234;
  6601 : 249;
  6602 : 8;
  6603 : 8;
  6604 : 29;
  6605 : 39;
  6606 : 201;
  6607 : 6;
  6608 : 24;
  6609 : 19;
  6610 : 13;
  6611 : 218;
  6612 : 2;
  6613 : 249;
  6614 : 31;
  6615 : 228;
  6616 : 225;
  6617 : 242;
  6618 : 24;
  6619 : 17;
  6620 : 83;
  6621 : 6;
  6622 : 2;
  6623 : 212;
  6624 : 226;
  6625 : 18;
  6626 : 4;
  6627 : 217;
  6628 : 211;
  6629 : 231;
  6630 : 200;
  6631 : 244;
  6632 : 215;
  6633 : 2;
  6634 : 225;
  6635 : 3;
  6636 : 242;
  6637 : 40;
  6638 : 215;
  6639 : 239;
  6640 : 245;
  6641 : 1;
  6642 : 247;
  6643 : 237;
  6644 : 233;
  6645 : 235;
  6646 : 0;
  6647 : 247;
  6648 : 28;
  6649 : 16;
  6650 : 240;
  6651 : 21;
  6652 : 178;
  6653 : 251;
  6654 : 253;
  6655 : 193;
  6656 : 248;
  6657 : 11;
  6658 : 23;
  6659 : 252;
  6660 : 4;
  6661 : 248;
  6662 : 237;
  6663 : 223;
  6664 : 202;
  6665 : 230;
  6666 : 0;
  6667 : 3;
  6668 : 236;
  6669 : 214;
  6670 : 183;
  6671 : 214;
  6672 : 2;
  6673 : 30;
  6674 : 249;
  6675 : 205;
  6676 : 21;
  6677 : 251;
  6678 : 13;
  6679 : 3;
  6680 : 2;
  6681 : 212;
  6682 : 1;
  6683 : 240;
  6684 : 31;
  6685 : 253;
  6686 : 3;
  6687 : 18;
  6688 : 237;
  6689 : 253;
  6690 : 3;
  6691 : 14;
  6692 : 210;
  6693 : 192;
  6694 : 226;
  6695 : 242;
  6696 : 217;
  6697 : 244;
  6698 : 232;
  6699 : 238;
  6700 : 231;
  6701 : 1;
  6702 : 25;
  6703 : 247;
  6704 : 0;
  6705 : 234;
  6706 : 235;
  6707 : 229;
  6708 : 237;
  6709 : 254;
  6710 : 216;
  6711 : 1;
  6712 : 4;
  6713 : 245;
  6714 : 220;
  6715 : 255;
  6716 : 253;
  6717 : 196;
  6718 : 248;
  6719 : 223;
  6720 : 0;
  6721 : 0;
  6722 : 238;
  6723 : 0;
  6724 : 25;
  6725 : 0;
  6726 : 0;
  6727 : 0;
  6728 : 0;
  6729 : 0;
  6730 : 0;
  6731 : 228;
  6732 : 0;
  6733 : 0;
  6734 : 233;
  6735 : 0;
  6736 : 0;
  6737 : 0;
  6738 : 0;
  6739 : 0;
  6740 : 234;
  6741 : 0;
  6742 : 230;
  6743 : 233;
  6744 : 0;
  6745 : 241;
  6746 : 231;
  6747 : 0;
  6748 : 0;
  6749 : 18;
  6750 : 0;
  6751 : 26;
  6752 : 0;
  6753 : 238;
  6754 : 0;
  6755 : 0;
  6756 : 233;
  6757 : 0;
  6758 : 0;
  6759 : 237;
  6760 : 0;
  6761 : 15;
  6762 : 0;
  6763 : 0;
  6764 : 0;
  6765 : 0;
  6766 : 0;
  6767 : 0;
  6768 : 0;
  6769 : 219;
  6770 : 241;
  6771 : 0;
  6772 : 0;
  6773 : 240;
  6774 : 0;
  6775 : 18;
  6776 : 0;
  6777 : 0;
  6778 : 241;
  6779 : 226;
  6780 : 0;
  6781 : 0;
  6782 : 223;
  6783 : 0;
  6784 : 30;
  6785 : 214;
  6786 : 31;
  6787 : 6;
  6788 : 6;
  6789 : 252;
  6790 : 219;
  6791 : 25;
  6792 : 215;
  6793 : 226;
  6794 : 218;
  6795 : 253;
  6796 : 215;
  6797 : 195;
  6798 : 19;
  6799 : 6;
  6800 : 255;
  6801 : 255;
  6802 : 223;
  6803 : 241;
  6804 : 4;
  6805 : 4;
  6806 : 243;
  6807 : 5;
  6808 : 241;
  6809 : 231;
  6810 : 1;
  6811 : 19;
  6812 : 172;
  6813 : 231;
  6814 : 4;
  6815 : 249;
  6816 : 234;
  6817 : 248;
  6818 : 239;
  6819 : 31;
  6820 : 28;
  6821 : 207;
  6822 : 234;
  6823 : 199;
  6824 : 243;
  6825 : 27;
  6826 : 19;
  6827 : 4;
  6828 : 236;
  6829 : 229;
  6830 : 19;
  6831 : 241;
  6832 : 199;
  6833 : 193;
  6834 : 221;
  6835 : 205;
  6836 : 35;
  6837 : 250;
  6838 : 227;
  6839 : 244;
  6840 : 229;
  6841 : 4;
  6842 : 247;
  6843 : 29;
  6844 : 31;
  6845 : 217;
  6846 : 0;
  6847 : 36;
  6848 : 202;
  6849 : 10;
  6850 : 230;
  6851 : 247;
  6852 : 219;
  6853 : 229;
  6854 : 246;
  6855 : 41;
  6856 : 182;
  6857 : 7;
  6858 : 232;
  6859 : 204;
  6860 : 221;
  6861 : 186;
  6862 : 60;
  6863 : 11;
  6864 : 177;
  6865 : 222;
  6866 : 6;
  6867 : 37;
  6868 : 224;
  6869 : 21;
  6870 : 221;
  6871 : 2;
  6872 : 5;
  6873 : 4;
  6874 : 199;
  6875 : 255;
  6876 : 229;
  6877 : 221;
  6878 : 242;
  6879 : 222;
  6880 : 246;
  6881 : 178;
  6882 : 10;
  6883 : 242;
  6884 : 64;
  6885 : 23;
  6886 : 9;
  6887 : 211;
  6888 : 216;
  6889 : 29;
  6890 : 219;
  6891 : 242;
  6892 : 242;
  6893 : 195;
  6894 : 208;
  6895 : 48;
  6896 : 241;
  6897 : 248;
  6898 : 248;
  6899 : 229;
  6900 : 220;
  6901 : 37;
  6902 : 17;
  6903 : 218;
  6904 : 222;
  6905 : 222;
  6906 : 247;
  6907 : 246;
  6908 : 254;
  6909 : 3;
  6910 : 16;
  6911 : 41;
  6912 : 247;
  6913 : 230;
  6914 : 243;
  6915 : 251;
  6916 : 252;
  6917 : 6;
  6918 : 212;
  6919 : 45;
  6920 : 246;
  6921 : 18;
  6922 : 218;
  6923 : 243;
  6924 : 250;
  6925 : 18;
  6926 : 200;
  6927 : 239;
  6928 : 13;
  6929 : 32;
  6930 : 252;
  6931 : 244;
  6932 : 1;
  6933 : 31;
  6934 : 249;
  6935 : 236;
  6936 : 7;
  6937 : 214;
  6938 : 253;
  6939 : 0;
  6940 : 6;
  6941 : 5;
  6942 : 24;
  6943 : 4;
  6944 : 2;
  6945 : 236;
  6946 : 247;
  6947 : 7;
  6948 : 216;
  6949 : 16;
  6950 : 228;
  6951 : 248;
  6952 : 249;
  6953 : 246;
  6954 : 229;
  6955 : 20;
  6956 : 0;
  6957 : 247;
  6958 : 3;
  6959 : 36;
  6960 : 8;
  6961 : 11;
  6962 : 1;
  6963 : 7;
  6964 : 245;
  6965 : 47;
  6966 : 253;
  6967 : 43;
  6968 : 1;
  6969 : 234;
  6970 : 216;
  6971 : 38;
  6972 : 253;
  6973 : 204;
  6974 : 251;
  6975 : 218;
  6976 : 224;
  6977 : 7;
  6978 : 216;
  6979 : 180;
  6980 : 247;
  6981 : 242;
  6982 : 253;
  6983 : 223;
  6984 : 199;
  6985 : 44;
  6986 : 207;
  6987 : 238;
  6988 : 211;
  6989 : 242;
  6990 : 42;
  6991 : 253;
  6992 : 204;
  6993 : 220;
  6994 : 250;
  6995 : 21;
  6996 : 201;
  6997 : 231;
  6998 : 206;
  6999 : 2;
  7000 : 4;
  7001 : 253;
  7002 : 220;
  7003 : 232;
  7004 : 226;
  7005 : 196;
  7006 : 222;
  7007 : 5;
  7008 : 221;
  7009 : 253;
  7010 : 254;
  7011 : 182;
  7012 : 31;
  7013 : 245;
  7014 : 61;
  7015 : 242;
  7016 : 196;
  7017 : 7;
  7018 : 202;
  7019 : 2;
  7020 : 241;
  7021 : 173;
  7022 : 240;
  7023 : 15;
  7024 : 252;
  7025 : 251;
  7026 : 12;
  7027 : 0;
  7028 : 187;
  7029 : 64;
  7030 : 7;
  7031 : 224;
  7032 : 204;
  7033 : 234;
  7034 : 249;
  7035 : 222;
  7036 : 1;
  7037 : 255;
  7038 : 3;
  7039 : 231;
  7040 : 22;
  7041 : 242;
  7042 : 29;
  7043 : 7;
  7044 : 20;
  7045 : 253;
  7046 : 248;
  7047 : 7;
  7048 : 224;
  7049 : 249;
  7050 : 13;
  7051 : 200;
  7052 : 38;
  7053 : 248;
  7054 : 214;
  7055 : 255;
  7056 : 35;
  7057 : 45;
  7058 : 239;
  7059 : 240;
  7060 : 214;
  7061 : 33;
  7062 : 241;
  7063 : 239;
  7064 : 241;
  7065 : 190;
  7066 : 253;
  7067 : 29;
  7068 : 239;
  7069 : 4;
  7070 : 9;
  7071 : 255;
  7072 : 15;
  7073 : 225;
  7074 : 8;
  7075 : 254;
  7076 : 19;
  7077 : 1;
  7078 : 213;
  7079 : 241;
  7080 : 1;
  7081 : 45;
  7082 : 206;
  7083 : 15;
  7084 : 236;
  7085 : 19;
  7086 : 250;
  7087 : 248;
  7088 : 233;
  7089 : 209;
  7090 : 207;
  7091 : 203;
  7092 : 12;
  7093 : 7;
  7094 : 248;
  7095 : 231;
  7096 : 12;
  7097 : 225;
  7098 : 232;
  7099 : 0;
  7100 : 249;
  7101 : 246;
  7102 : 11;
  7103 : 33;
  7104 : 0;
  7105 : 199;
  7106 : 237;
  7107 : 40;
  7108 : 31;
  7109 : 247;
  7110 : 48;
  7111 : 222;
  7112 : 31;
  7113 : 13;
  7114 : 6;
  7115 : 6;
  7116 : 32;
  7117 : 31;
  7118 : 213;
  7119 : 5;
  7120 : 38;
  7121 : 7;
  7122 : 251;
  7123 : 237;
  7124 : 192;
  7125 : 15;
  7126 : 40;
  7127 : 176;
  7128 : 220;
  7129 : 229;
  7130 : 3;
  7131 : 18;
  7132 : 5;
  7133 : 19;
  7134 : 6;
  7135 : 10;
  7136 : 236;
  7137 : 229;
  7138 : 255;
  7139 : 7;
  7140 : 235;
  7141 : 246;
  7142 : 201;
  7143 : 0;
  7144 : 229;
  7145 : 21;
  7146 : 227;
  7147 : 13;
  7148 : 0;
  7149 : 51;
  7150 : 180;
  7151 : 194;
  7152 : 239;
  7153 : 252;
  7154 : 249;
  7155 : 251;
  7156 : 1;
  7157 : 210;
  7158 : 211;
  7159 : 6;
  7160 : 9;
  7161 : 248;
  7162 : 250;
  7163 : 241;
  7164 : 9;
  7165 : 10;
  7166 : 241;
  7167 : 215;
  7168 : 21;
  7169 : 232;
  7170 : 28;
  7171 : 4;
  7172 : 218;
  7173 : 250;
  7174 : 221;
  7175 : 201;
  7176 : 229;
  7177 : 208;
  7178 : 19;
  7179 : 21;
  7180 : 6;
  7181 : 48;
  7182 : 201;
  7183 : 255;
  7184 : 0;
  7185 : 32;
  7186 : 241;
  7187 : 253;
  7188 : 3;
  7189 : 225;
  7190 : 22;
  7191 : 3;
  7192 : 227;
  7193 : 231;
  7194 : 38;
  7195 : 248;
  7196 : 55;
  7197 : 6;
  7198 : 3;
  7199 : 212;
  7200 : 212;
  7201 : 21;
  7202 : 249;
  7203 : 210;
  7204 : 219;
  7205 : 229;
  7206 : 210;
  7207 : 248;
  7208 : 198;
  7209 : 14;
  7210 : 238;
  7211 : 34;
  7212 : 0;
  7213 : 5;
  7214 : 2;
  7215 : 1;
  7216 : 18;
  7217 : 0;
  7218 : 252;
  7219 : 248;
  7220 : 230;
  7221 : 20;
  7222 : 0;
  7223 : 14;
  7224 : 6;
  7225 : 255;
  7226 : 243;
  7227 : 2;
  7228 : 219;
  7229 : 232;
  7230 : 248;
  7231 : 236;
  7232 : 232;
  7233 : 24;
  7234 : 29;
  7235 : 0;
  7236 : 4;
  7237 : 242;
  7238 : 13;
  7239 : 248;
  7240 : 246;
  7241 : 24;
  7242 : 231;
  7243 : 4;
  7244 : 243;
  7245 : 29;
  7246 : 232;
  7247 : 214;
  7248 : 229;
  7249 : 244;
  7250 : 7;
  7251 : 25;
  7252 : 224;
  7253 : 221;
  7254 : 249;
  7255 : 245;
  7256 : 33;
  7257 : 248;
  7258 : 251;
  7259 : 1;
  7260 : 222;
  7261 : 236;
  7262 : 227;
  7263 : 44;
  7264 : 8;
  7265 : 9;
  7266 : 222;
  7267 : 252;
  7268 : 198;
  7269 : 6;
  7270 : 49;
  7271 : 201;
  7272 : 0;
  7273 : 0;
  7274 : 252;
  7275 : 18;
  7276 : 0;
  7277 : 204;
  7278 : 206;
  7279 : 239;
  7280 : 251;
  7281 : 228;
  7282 : 219;
  7283 : 15;
  7284 : 255;
  7285 : 37;
  7286 : 3;
  7287 : 5;
  7288 : 221;
  7289 : 255;
  7290 : 216;
  7291 : 226;
  7292 : 7;
  7293 : 28;
  7294 : 252;
  7295 : 220;
  7296 : 250;
  7297 : 190;
  7298 : 34;
  7299 : 249;
  7300 : 244;
  7301 : 232;
  7302 : 213;
  7303 : 215;
  7304 : 251;
  7305 : 0;
  7306 : 243;
  7307 : 2;
  7308 : 226;
  7309 : 250;
  7310 : 3;
  7311 : 221;
  7312 : 232;
  7313 : 253;
  7314 : 254;
  7315 : 229;
  7316 : 3;
  7317 : 160;
  7318 : 253;
  7319 : 227;
  7320 : 227;
  7321 : 251;
  7322 : 6;
  7323 : 173;
  7324 : 201;
  7325 : 245;
  7326 : 224;
  7327 : 21;
  7328 : 216;
  7329 : 15;
  7330 : 245;
  7331 : 190;
  7332 : 232;
  7333 : 182;
  7334 : 216;
  7335 : 233;
  7336 : 218;
  7337 : 9;
  7338 : 22;
  7339 : 0;
  7340 : 0;
  7341 : 211;
  7342 : 253;
  7343 : 219;
  7344 : 239;
  7345 : 230;
  7346 : 11;
  7347 : 228;
  7348 : 226;
  7349 : 207;
  7350 : 220;
  7351 : 31;
  7352 : 210;
  7353 : 5;
  7354 : 222;
  7355 : 1;
  7356 : 24;
  7357 : 2;
  7358 : 242;
  7359 : 172;
  7360 : 252;
  7361 : 186;
  7362 : 220;
  7363 : 9;
  7364 : 253;
  7365 : 219;
  7366 : 0;
  7367 : 237;
  7368 : 0;
  7369 : 252;
  7370 : 2;
  7371 : 9;
  7372 : 6;
  7373 : 21;
  7374 : 206;
  7375 : 2;
  7376 : 16;
  7377 : 2;
  7378 : 2;
  7379 : 242;
  7380 : 216;
  7381 : 248;
  7382 : 35;
  7383 : 237;
  7384 : 217;
  7385 : 249;
  7386 : 252;
  7387 : 4;
  7388 : 52;
  7389 : 20;
  7390 : 21;
  7391 : 247;
  7392 : 255;
  7393 : 12;
  7394 : 19;
  7395 : 3;
  7396 : 216;
  7397 : 231;
  7398 : 223;
  7399 : 211;
  7400 : 248;
  7401 : 247;
  7402 : 224;
  7403 : 10;
  7404 : 0;
  7405 : 30;
  7406 : 220;
  7407 : 234;
  7408 : 235;
  7409 : 242;
  7410 : 220;
  7411 : 218;
  7412 : 254;
  7413 : 205;
  7414 : 220;
  7415 : 9;
  7416 : 38;
  7417 : 0;
  7418 : 200;
  7419 : 7;
  7420 : 216;
  7421 : 251;
  7422 : 251;
  7423 : 209;
  7424 : 254;
  7425 : 199;
  7426 : 229;
  7427 : 237;
  7428 : 229;
  7429 : 246;
  7430 : 222;
  7431 : 238;
  7432 : 242;
  7433 : 241;
  7434 : 20;
  7435 : 3;
  7436 : 26;
  7437 : 6;
  7438 : 221;
  7439 : 25;
  7440 : 26;
  7441 : 8;
  7442 : 223;
  7443 : 195;
  7444 : 3;
  7445 : 27;
  7446 : 58;
  7447 : 225;
  7448 : 200;
  7449 : 245;
  7450 : 47;
  7451 : 2;
  7452 : 48;
  7453 : 3;
  7454 : 22;
  7455 : 199;
  7456 : 229;
  7457 : 1;
  7458 : 255;
  7459 : 223;
  7460 : 231;
  7461 : 214;
  7462 : 174;
  7463 : 248;
  7464 : 196;
  7465 : 200;
  7466 : 236;
  7467 : 2;
  7468 : 240;
  7469 : 49;
  7470 : 0;
  7471 : 240;
  7472 : 243;
  7473 : 15;
  7474 : 215;
  7475 : 1;
  7476 : 217;
  7477 : 217;
  7478 : 215;
  7479 : 8;
  7480 : 41;
  7481 : 3;
  7482 : 234;
  7483 : 1;
  7484 : 195;
  7485 : 212;
  7486 : 251;
  7487 : 244;
  7488 : 218;
  7489 : 14;
  7490 : 14;
  7491 : 253;
  7492 : 3;
  7493 : 229;
  7494 : 13;
  7495 : 246;
  7496 : 240;
  7497 : 41;
  7498 : 195;
  7499 : 247;
  7500 : 211;
  7501 : 24;
  7502 : 233;
  7503 : 192;
  7504 : 227;
  7505 : 248;
  7506 : 7;
  7507 : 9;
  7508 : 243;
  7509 : 232;
  7510 : 223;
  7511 : 248;
  7512 : 27;
  7513 : 243;
  7514 : 207;
  7515 : 19;
  7516 : 223;
  7517 : 233;
  7518 : 230;
  7519 : 20;
  7520 : 8;
  7521 : 252;
  7522 : 196;
  7523 : 249;
  7524 : 226;
  7525 : 8;
  7526 : 10;
  7527 : 231;
  7528 : 1;
  7529 : 4;
  7530 : 251;
  7531 : 22;
  7532 : 0;
  7533 : 187;
  7534 : 209;
  7535 : 7;
  7536 : 252;
  7537 : 4;
  7538 : 209;
  7539 : 17;
  7540 : 0;
  7541 : 27;
  7542 : 5;
  7543 : 25;
  7544 : 216;
  7545 : 240;
  7546 : 208;
  7547 : 233;
  7548 : 5;
  7549 : 3;
  7550 : 1;
  7551 : 225;
  7552 : 244;
  7553 : 6;
  7554 : 17;
  7555 : 240;
  7556 : 8;
  7557 : 3;
  7558 : 8;
  7559 : 253;
  7560 : 251;
  7561 : 6;
  7562 : 213;
  7563 : 215;
  7564 : 3;
  7565 : 13;
  7566 : 203;
  7567 : 224;
  7568 : 2;
  7569 : 5;
  7570 : 4;
  7571 : 6;
  7572 : 247;
  7573 : 255;
  7574 : 249;
  7575 : 219;
  7576 : 243;
  7577 : 221;
  7578 : 7;
  7579 : 26;
  7580 : 247;
  7581 : 1;
  7582 : 248;
  7583 : 254;
  7584 : 2;
  7585 : 247;
  7586 : 254;
  7587 : 0;
  7588 : 233;
  7589 : 6;
  7590 : 2;
  7591 : 0;
  7592 : 3;
  7593 : 22;
  7594 : 202;
  7595 : 0;
  7596 : 235;
  7597 : 223;
  7598 : 23;
  7599 : 1;
  7600 : 0;
  7601 : 253;
  7602 : 203;
  7603 : 17;
  7604 : 18;
  7605 : 253;
  7606 : 252;
  7607 : 18;
  7608 : 249;
  7609 : 243;
  7610 : 209;
  7611 : 230;
  7612 : 3;
  7613 : 3;
  7614 : 229;
  7615 : 5;
  7616 : 24;
