WIDTH=8;
DEPTH=32;
ADDRESS_RADIX=UNS;
DATA_RADIX=UNS;
CONTENT BEGIN
  0 : 167;
  1 : 164;
  2 : 0;
  3 : 239;
  4 : 180;
  5 : 255;
  6 : 188;
  7 : 19;
  8 : 213;
  9 : 190;
  10 : 241;
  11 : 246;
  12 : 0;
  13 : 63;
  14 : 129;
  15 : 228;
  16 : 248;
  17 : 212;
  18 : 82;
  19 : 174;
  20 : 41;
  21 : 202;
  22 : 157;
  23 : 250;
  24 : 135;
  25 : 221;
  26 : 250;
  27 : 243;
  28 : 170;
  29 : 229;
  30 : 220;
  31 : 150;
END;
