WIDTH=8;
DEPTH=64;
ADDRESS_RADIX=UNS;
DATA_RADIX=UNS;
CONTENT BEGIN
  0 : 217;
  1 : 155;
  2 : 10;
  3 : 129;
  4 : 240;
  5 : 196;
  6 : 226;
  7 : 177;
  8 : 248;
  9 : 4;
  10 : 188;
  11 : 234;
  12 : 6;
  13 : 237;
  14 : 248;
  15 : 251;
  16 : 196;
  17 : 224;
  18 : 10;
  19 : 231;
  20 : 222;
  21 : 182;
  22 : 234;
  23 : 203;
  24 : 188;
  25 : 6;
  26 : 215;
  27 : 213;
  28 : 197;
  29 : 0;
  30 : 203;
  31 : 238;
  32 : 13;
  33 : 1;
  34 : 209;
  35 : 160;
  36 : 242;
  37 : 18;
  38 : 253;
  39 : 254;
  40 : 16;
  41 : 13;
  42 : 207;
  43 : 236;
  44 : 0;
  45 : 236;
  46 : 193;
  47 : 217;
  48 : 225;
  49 : 254;
  50 : 251;
  51 : 1;
  52 : 177;
  53 : 246;
  54 : 218;
  55 : 234;
  56 : 218;
  57 : 239;
  58 : 200;
  59 : 176;
  60 : 199;
  61 : 20;
  62 : 246;
  63 : 198;
END;
