WIDTH=8;
DEPTH=102400;
ADDRESS_RADIX=UNS;
DATA_RADIX=UNS;
CONTENT BEGIN
  0 : 254;
  1 : 0;
  2 : 245;
  3 : 31;
  4 : 47;
  5 : 2;
  6 : 6;
  7 : 245;
  8 : 8;
  9 : 22;
  10 : 242;
  11 : 255;
  12 : 245;
  13 : 4;
  14 : 240;
  15 : 7;
  16 : 0;
  17 : 239;
  18 : 0;
  19 : 0;
  20 : 40;
  21 : 245;
  22 : 0;
  23 : 252;
  24 : 237;
  25 : 7;
  26 : 0;
  27 : 22;
  28 : 4;
  29 : 0;
  30 : 12;
  31 : 251;
  32 : 15;
  33 : 245;
  34 : 0;
  35 : 229;
  36 : 2;
  37 : 4;
  38 : 8;
  39 : 17;
  40 : 9;
  41 : 0;
  42 : 25;
  43 : 0;
  44 : 15;
  45 : 23;
  46 : 0;
  47 : 251;
  48 : 0;
  49 : 5;
  50 : 16;
  51 : 15;
  52 : 8;
  53 : 228;
  54 : 243;
  55 : 1;
  56 : 228;
  57 : 0;
  58 : 253;
  59 : 3;
  60 : 16;
  61 : 0;
  62 : 0;
  63 : 9;
  64 : 3;
  65 : 0;
  66 : 5;
  67 : 14;
  68 : 8;
  69 : 246;
  70 : 17;
  71 : 19;
  72 : 5;
  73 : 26;
  74 : 242;
  75 : 252;
  76 : 252;
  77 : 255;
  78 : 16;
  79 : 16;
  80 : 0;
  81 : 2;
  82 : 248;
  83 : 17;
  84 : 244;
  85 : 251;
  86 : 241;
  87 : 245;
  88 : 10;
  89 : 253;
  90 : 247;
  91 : 3;
  92 : 3;
  93 : 0;
  94 : 8;
  95 : 245;
  96 : 3;
  97 : 8;
  98 : 0;
  99 : 239;
  100 : 254;
  101 : 15;
  102 : 23;
  103 : 243;
  104 : 27;
  105 : 0;
  106 : 254;
  107 : 0;
  108 : 254;
  109 : 254;
  110 : 0;
  111 : 0;
  112 : 0;
  113 : 250;
  114 : 5;
  115 : 4;
  116 : 0;
  117 : 9;
  118 : 237;
  119 : 25;
  120 : 251;
  121 : 0;
  122 : 249;
  123 : 23;
  124 : 23;
  125 : 0;
  126 : 9;
  127 : 241;
  128 : 252;
  129 : 0;
  130 : 240;
  131 : 232;
  132 : 245;
  133 : 239;
  134 : 243;
  135 : 6;
  136 : 208;
  137 : 227;
  138 : 222;
  139 : 11;
  140 : 245;
  141 : 2;
  142 : 25;
  143 : 25;
  144 : 0;
  145 : 5;
  146 : 0;
  147 : 213;
  148 : 40;
  149 : 38;
  150 : 26;
  151 : 196;
  152 : 10;
  153 : 210;
  154 : 0;
  155 : 37;
  156 : 14;
  157 : 0;
  158 : 8;
  159 : 11;
  160 : 226;
  161 : 247;
  162 : 0;
  163 : 34;
  164 : 9;
  165 : 237;
  166 : 241;
  167 : 2;
  168 : 250;
  169 : 0;
  170 : 7;
  171 : 0;
  172 : 19;
  173 : 255;
  174 : 247;
  175 : 233;
  176 : 0;
  177 : 237;
  178 : 244;
  179 : 236;
  180 : 246;
  181 : 12;
  182 : 49;
  183 : 8;
  184 : 50;
  185 : 0;
  186 : 40;
  187 : 2;
  188 : 232;
  189 : 0;
  190 : 0;
  191 : 252;
  192 : 249;
  193 : 0;
  194 : 227;
  195 : 12;
  196 : 214;
  197 : 245;
  198 : 9;
  199 : 14;
  200 : 249;
  201 : 247;
  202 : 226;
  203 : 34;
  204 : 233;
  205 : 255;
  206 : 5;
  207 : 241;
  208 : 0;
  209 : 12;
  210 : 0;
  211 : 249;
  212 : 230;
  213 : 26;
  214 : 240;
  215 : 238;
  216 : 25;
  217 : 247;
  218 : 0;
  219 : 18;
  220 : 18;
  221 : 0;
  222 : 231;
  223 : 16;
  224 : 252;
  225 : 0;
  226 : 0;
  227 : 240;
  228 : 22;
  229 : 253;
  230 : 255;
  231 : 8;
  232 : 2;
  233 : 0;
  234 : 26;
  235 : 0;
  236 : 1;
  237 : 253;
  238 : 0;
  239 : 255;
  240 : 0;
  241 : 4;
  242 : 226;
  243 : 4;
  244 : 0;
  245 : 9;
  246 : 9;
  247 : 9;
  248 : 44;
  249 : 247;
  250 : 38;
  251 : 10;
  252 : 1;
  253 : 0;
  254 : 246;
  255 : 1;
  256 : 247;
  257 : 0;
  258 : 3;
  259 : 10;
  260 : 233;
  261 : 21;
  262 : 39;
  263 : 1;
  264 : 4;
  265 : 245;
  266 : 250;
  267 : 8;
  268 : 245;
  269 : 30;
  270 : 0;
  271 : 252;
  272 : 0;
  273 : 31;
  274 : 0;
  275 : 243;
  276 : 32;
  277 : 4;
  278 : 251;
  279 : 12;
  280 : 239;
  281 : 255;
  282 : 0;
  283 : 252;
  284 : 249;
  285 : 8;
  286 : 255;
  287 : 10;
  288 : 253;
  289 : 0;
  290 : 248;
  291 : 16;
  292 : 1;
  293 : 26;
  294 : 24;
  295 : 250;
  296 : 5;
  297 : 0;
  298 : 18;
  299 : 0;
  300 : 5;
  301 : 8;
  302 : 0;
  303 : 26;
  304 : 0;
  305 : 253;
  306 : 241;
  307 : 8;
  308 : 247;
  309 : 0;
  310 : 19;
  311 : 235;
  312 : 5;
  313 : 247;
  314 : 11;
  315 : 251;
  316 : 241;
  317 : 0;
  318 : 0;
  319 : 26;
  320 : 244;
  321 : 0;
  322 : 248;
  323 : 35;
  324 : 45;
  325 : 5;
  326 : 229;
  327 : 29;
  328 : 247;
  329 : 21;
  330 : 240;
  331 : 254;
  332 : 15;
  333 : 3;
  334 : 253;
  335 : 25;
  336 : 0;
  337 : 242;
  338 : 0;
  339 : 21;
  340 : 251;
  341 : 207;
  342 : 14;
  343 : 12;
  344 : 7;
  345 : 253;
  346 : 0;
  347 : 234;
  348 : 253;
  349 : 0;
  350 : 5;
  351 : 16;
  352 : 16;
  353 : 9;
  354 : 0;
  355 : 1;
  356 : 252;
  357 : 12;
  358 : 252;
  359 : 2;
  360 : 56;
  361 : 0;
  362 : 6;
  363 : 0;
  364 : 237;
  365 : 244;
  366 : 0;
  367 : 233;
  368 : 0;
  369 : 245;
  370 : 14;
  371 : 27;
  372 : 247;
  373 : 229;
  374 : 233;
  375 : 244;
  376 : 248;
  377 : 0;
  378 : 238;
  379 : 241;
  380 : 33;
  381 : 0;
  382 : 0;
  383 : 7;
  384 : 245;
  385 : 0;
  386 : 247;
  387 : 1;
  388 : 242;
  389 : 8;
  390 : 7;
  391 : 29;
  392 : 222;
  393 : 240;
  394 : 230;
  395 : 35;
  396 : 253;
  397 : 19;
  398 : 248;
  399 : 218;
  400 : 8;
  401 : 39;
  402 : 8;
  403 : 19;
  404 : 35;
  405 : 4;
  406 : 7;
  407 : 28;
  408 : 9;
  409 : 238;
  410 : 248;
  411 : 22;
  412 : 240;
  413 : 0;
  414 : 252;
  415 : 27;
  416 : 240;
  417 : 0;
  418 : 0;
  419 : 252;
  420 : 17;
  421 : 240;
  422 : 29;
  423 : 255;
  424 : 254;
  425 : 7;
  426 : 5;
  427 : 0;
  428 : 6;
  429 : 255;
  430 : 0;
  431 : 254;
  432 : 0;
  433 : 244;
  434 : 233;
  435 : 241;
  436 : 0;
  437 : 0;
  438 : 1;
  439 : 233;
  440 : 25;
  441 : 0;
  442 : 36;
  443 : 30;
  444 : 239;
  445 : 0;
  446 : 8;
  447 : 19;
  448 : 253;
  449 : 0;
  450 : 0;
  451 : 239;
  452 : 252;
  453 : 10;
  454 : 242;
  455 : 248;
  456 : 245;
  457 : 18;
  458 : 238;
  459 : 4;
  460 : 249;
  461 : 17;
  462 : 232;
  463 : 236;
  464 : 0;
  465 : 252;
  466 : 247;
  467 : 9;
  468 : 17;
  469 : 2;
  470 : 242;
  471 : 1;
  472 : 248;
  473 : 12;
  474 : 0;
  475 : 50;
  476 : 14;
  477 : 0;
  478 : 255;
  479 : 255;
  480 : 232;
  481 : 0;
  482 : 0;
  483 : 214;
  484 : 31;
  485 : 3;
  486 : 9;
  487 : 1;
  488 : 0;
  489 : 0;
  490 : 28;
  491 : 0;
  492 : 237;
  493 : 241;
  494 : 0;
  495 : 8;
  496 : 0;
  497 : 246;
  498 : 247;
  499 : 15;
  500 : 0;
  501 : 15;
  502 : 252;
  503 : 250;
  504 : 208;
  505 : 0;
  506 : 9;
  507 : 3;
  508 : 11;
  509 : 0;
  510 : 0;
  511 : 253;
  512 : 226;
  513 : 0;
  514 : 18;
  515 : 37;
  516 : 15;
  517 : 15;
  518 : 225;
  519 : 17;
  520 : 250;
  521 : 11;
  522 : 247;
  523 : 12;
  524 : 25;
  525 : 7;
  526 : 244;
  527 : 10;
  528 : 0;
  529 : 18;
  530 : 0;
  531 : 34;
  532 : 253;
  533 : 231;
  534 : 27;
  535 : 9;
  536 : 247;
  537 : 224;
  538 : 0;
  539 : 249;
  540 : 1;
  541 : 0;
  542 : 253;
  543 : 24;
  544 : 13;
  545 : 0;
  546 : 0;
  547 : 1;
  548 : 247;
  549 : 29;
  550 : 254;
  551 : 3;
  552 : 38;
  553 : 0;
  554 : 247;
  555 : 0;
  556 : 248;
  557 : 250;
  558 : 0;
  559 : 226;
  560 : 0;
  561 : 239;
  562 : 245;
  563 : 14;
  564 : 0;
  565 : 222;
  566 : 235;
  567 : 6;
  568 : 253;
  569 : 0;
  570 : 245;
  571 : 253;
  572 : 36;
  573 : 0;
  574 : 0;
  575 : 2;
  576 : 214;
  577 : 0;
  578 : 230;
  579 : 19;
  580 : 217;
  581 : 8;
  582 : 52;
  583 : 42;
  584 : 244;
  585 : 254;
  586 : 233;
  587 : 35;
  588 : 4;
  589 : 12;
  590 : 250;
  591 : 254;
  592 : 0;
  593 : 17;
  594 : 0;
  595 : 232;
  596 : 23;
  597 : 249;
  598 : 248;
  599 : 12;
  600 : 18;
  601 : 4;
  602 : 0;
  603 : 250;
  604 : 206;
  605 : 0;
  606 : 1;
  607 : 31;
  608 : 14;
  609 : 0;
  610 : 0;
  611 : 28;
  612 : 3;
  613 : 29;
  614 : 244;
  615 : 251;
  616 : 26;
  617 : 247;
  618 : 28;
  619 : 0;
  620 : 7;
  621 : 226;
  622 : 0;
  623 : 28;
  624 : 0;
  625 : 228;
  626 : 233;
  627 : 252;
  628 : 0;
  629 : 12;
  630 : 252;
  631 : 208;
  632 : 24;
  633 : 0;
  634 : 9;
  635 : 220;
  636 : 228;
  637 : 0;
  638 : 0;
  639 : 32;
  640 : 238;
  641 : 0;
  642 : 235;
  643 : 1;
  644 : 242;
  645 : 53;
  646 : 23;
  647 : 8;
  648 : 23;
  649 : 58;
  650 : 241;
  651 : 4;
  652 : 17;
  653 : 5;
  654 : 214;
  655 : 224;
  656 : 0;
  657 : 241;
  658 : 0;
  659 : 8;
  660 : 15;
  661 : 251;
  662 : 23;
  663 : 21;
  664 : 3;
  665 : 8;
  666 : 0;
  667 : 24;
  668 : 4;
  669 : 249;
  670 : 245;
  671 : 231;
  672 : 3;
  673 : 0;
  674 : 0;
  675 : 230;
  676 : 44;
  677 : 3;
  678 : 30;
  679 : 232;
  680 : 10;
  681 : 0;
  682 : 12;
  683 : 248;
  684 : 23;
  685 : 16;
  686 : 0;
  687 : 242;
  688 : 247;
  689 : 255;
  690 : 251;
  691 : 34;
  692 : 0;
  693 : 255;
  694 : 208;
  695 : 242;
  696 : 218;
  697 : 0;
  698 : 248;
  699 : 0;
  700 : 236;
  701 : 0;
  702 : 246;
  703 : 15;
  704 : 242;
  705 : 0;
  706 : 25;
  707 : 251;
  708 : 2;
  709 : 14;
  710 : 209;
  711 : 21;
  712 : 254;
  713 : 8;
  714 : 223;
  715 : 254;
  716 : 20;
  717 : 9;
  718 : 25;
  719 : 26;
  720 : 0;
  721 : 252;
  722 : 0;
  723 : 249;
  724 : 248;
  725 : 249;
  726 : 16;
  727 : 224;
  728 : 12;
  729 : 223;
  730 : 0;
  731 : 250;
  732 : 6;
  733 : 0;
  734 : 4;
  735 : 23;
  736 : 247;
  737 : 0;
  738 : 248;
  739 : 6;
  740 : 2;
  741 : 7;
  742 : 254;
  743 : 240;
  744 : 10;
  745 : 0;
  746 : 6;
  747 : 0;
  748 : 250;
  749 : 6;
  750 : 0;
  751 : 222;
  752 : 0;
  753 : 227;
  754 : 217;
  755 : 17;
  756 : 0;
  757 : 2;
  758 : 254;
  759 : 10;
  760 : 11;
  761 : 0;
  762 : 251;
  763 : 251;
  764 : 2;
  765 : 0;
  766 : 0;
  767 : 255;
  768 : 238;
  769 : 0;
  770 : 8;
  771 : 23;
  772 : 18;
  773 : 0;
  774 : 222;
  775 : 255;
  776 : 230;
  777 : 11;
  778 : 240;
  779 : 14;
  780 : 5;
  781 : 5;
  782 : 247;
  783 : 250;
  784 : 0;
  785 : 31;
  786 : 0;
  787 : 32;
  788 : 11;
  789 : 220;
  790 : 43;
  791 : 238;
  792 : 232;
  793 : 233;
  794 : 0;
  795 : 6;
  796 : 237;
  797 : 0;
  798 : 6;
  799 : 17;
  800 : 250;
  801 : 0;
  802 : 246;
  803 : 241;
  804 : 1;
  805 : 32;
  806 : 253;
  807 : 251;
  808 : 26;
  809 : 0;
  810 : 252;
  811 : 247;
  812 : 233;
  813 : 246;
  814 : 0;
  815 : 234;
  816 : 0;
  817 : 239;
  818 : 249;
  819 : 3;
  820 : 0;
  821 : 230;
  822 : 236;
  823 : 245;
  824 : 24;
  825 : 245;
  826 : 232;
  827 : 20;
  828 : 43;
  829 : 0;
  830 : 0;
  831 : 5;
  832 : 18;
  833 : 8;
  834 : 246;
  835 : 253;
  836 : 10;
  837 : 225;
  838 : 0;
  839 : 251;
  840 : 233;
  841 : 250;
  842 : 229;
  843 : 31;
  844 : 248;
  845 : 9;
  846 : 7;
  847 : 244;
  848 : 0;
  849 : 43;
  850 : 10;
  851 : 29;
  852 : 15;
  853 : 252;
  854 : 250;
  855 : 3;
  856 : 248;
  857 : 7;
  858 : 0;
  859 : 5;
  860 : 7;
  861 : 7;
  862 : 13;
  863 : 5;
  864 : 240;
  865 : 0;
  866 : 0;
  867 : 5;
  868 : 245;
  869 : 236;
  870 : 10;
  871 : 3;
  872 : 3;
  873 : 0;
  874 : 9;
  875 : 0;
  876 : 14;
  877 : 253;
  878 : 8;
  879 : 0;
  880 : 0;
  881 : 0;
  882 : 253;
  883 : 246;
  884 : 0;
  885 : 249;
  886 : 11;
  887 : 232;
  888 : 46;
  889 : 0;
  890 : 36;
  891 : 27;
  892 : 9;
  893 : 0;
  894 : 11;
  895 : 1;
  896 : 5;
  897 : 0;
  898 : 227;
  899 : 12;
  900 : 10;
  901 : 25;
  902 : 62;
  903 : 10;
  904 : 8;
  905 : 60;
  906 : 238;
  907 : 33;
  908 : 242;
  909 : 16;
  910 : 227;
  911 : 236;
  912 : 0;
  913 : 255;
  914 : 0;
  915 : 19;
  916 : 25;
  917 : 8;
  918 : 4;
  919 : 23;
  920 : 27;
  921 : 32;
  922 : 0;
  923 : 48;
  924 : 5;
  925 : 245;
  926 : 221;
  927 : 227;
  928 : 12;
  929 : 247;
  930 : 0;
  931 : 215;
  932 : 54;
  933 : 228;
  934 : 67;
  935 : 236;
  936 : 238;
  937 : 0;
  938 : 18;
  939 : 0;
  940 : 1;
  941 : 9;
  942 : 7;
  943 : 237;
  944 : 0;
  945 : 26;
  946 : 7;
  947 : 16;
  948 : 0;
  949 : 237;
  950 : 211;
  951 : 252;
  952 : 237;
  953 : 248;
  954 : 7;
  955 : 3;
  956 : 240;
  957 : 0;
  958 : 0;
  959 : 21;
  960 : 244;
  961 : 0;
  962 : 2;
  963 : 3;
  964 : 245;
  965 : 17;
  966 : 26;
  967 : 19;
  968 : 244;
  969 : 28;
  970 : 9;
  971 : 236;
  972 : 37;
  973 : 12;
  974 : 229;
  975 : 255;
  976 : 0;
  977 : 247;
  978 : 0;
  979 : 0;
  980 : 1;
  981 : 3;
  982 : 14;
  983 : 19;
  984 : 21;
  985 : 12;
  986 : 0;
  987 : 13;
  988 : 254;
  989 : 0;
  990 : 13;
  991 : 20;
  992 : 247;
  993 : 0;
  994 : 0;
  995 : 252;
  996 : 28;
  997 : 30;
  998 : 255;
  999 : 235;
  1000 : 17;
  1001 : 0;
  1002 : 4;
  1003 : 0;
  1004 : 213;
  1005 : 14;
  1006 : 249;
  1007 : 11;
  1008 : 0;
  1009 : 233;
  1010 : 2;
  1011 : 250;
  1012 : 0;
  1013 : 31;
  1014 : 242;
  1015 : 8;
  1016 : 212;
  1017 : 0;
  1018 : 243;
  1019 : 243;
  1020 : 17;
  1021 : 0;
  1022 : 0;
  1023 : 10;
  1024 : 12;
  1025 : 245;
  1026 : 237;
  1027 : 249;
  1028 : 4;
  1029 : 5;
  1030 : 10;
  1031 : 242;
  1032 : 249;
  1033 : 1;
  1034 : 234;
  1035 : 2;
  1036 : 253;
  1037 : 15;
  1038 : 3;
  1039 : 23;
  1040 : 248;
  1041 : 219;
  1042 : 0;
  1043 : 232;
  1044 : 17;
  1045 : 0;
  1046 : 4;
  1047 : 218;
  1048 : 254;
  1049 : 226;
  1050 : 248;
  1051 : 27;
  1052 : 8;
  1053 : 0;
  1054 : 14;
  1055 : 252;
  1056 : 27;
  1057 : 0;
  1058 : 0;
  1059 : 2;
  1060 : 5;
  1061 : 247;
  1062 : 239;
  1063 : 7;
  1064 : 3;
  1065 : 0;
  1066 : 7;
  1067 : 0;
  1068 : 4;
  1069 : 227;
  1070 : 0;
  1071 : 190;
  1072 : 0;
  1073 : 242;
  1074 : 20;
  1075 : 244;
  1076 : 248;
  1077 : 4;
  1078 : 9;
  1079 : 252;
  1080 : 2;
  1081 : 0;
  1082 : 252;
  1083 : 237;
  1084 : 23;
  1085 : 0;
  1086 : 0;
  1087 : 251;
  1088 : 5;
  1089 : 0;
  1090 : 2;
  1091 : 223;
  1092 : 16;
  1093 : 6;
  1094 : 0;
  1095 : 246;
  1096 : 243;
  1097 : 253;
  1098 : 241;
  1099 : 9;
  1100 : 252;
  1101 : 27;
  1102 : 38;
  1103 : 23;
  1104 : 0;
  1105 : 239;
  1106 : 0;
  1107 : 208;
  1108 : 254;
  1109 : 13;
  1110 : 15;
  1111 : 222;
  1112 : 248;
  1113 : 241;
  1114 : 246;
  1115 : 40;
  1116 : 30;
  1117 : 0;
  1118 : 26;
  1119 : 248;
  1120 : 236;
  1121 : 0;
  1122 : 0;
  1123 : 21;
  1124 : 11;
  1125 : 226;
  1126 : 0;
  1127 : 17;
  1128 : 249;
  1129 : 0;
  1130 : 14;
  1131 : 0;
  1132 : 22;
  1133 : 33;
  1134 : 8;
  1135 : 234;
  1136 : 0;
  1137 : 232;
  1138 : 2;
  1139 : 234;
  1140 : 0;
  1141 : 13;
  1142 : 26;
  1143 : 6;
  1144 : 22;
  1145 : 0;
  1146 : 25;
  1147 : 17;
  1148 : 253;
  1149 : 0;
  1150 : 0;
  1151 : 248;
  1152 : 251;
  1153 : 247;
  1154 : 0;
  1155 : 4;
  1156 : 248;
  1157 : 253;
  1158 : 16;
  1159 : 3;
  1160 : 1;
  1161 : 3;
  1162 : 0;
  1163 : 8;
  1164 : 4;
  1165 : 247;
  1166 : 4;
  1167 : 255;
  1168 : 0;
  1169 : 1;
  1170 : 0;
  1171 : 246;
  1172 : 252;
  1173 : 253;
  1174 : 5;
  1175 : 0;
  1176 : 16;
  1177 : 251;
  1178 : 0;
  1179 : 7;
  1180 : 240;
  1181 : 0;
  1182 : 247;
  1183 : 2;
  1184 : 252;
  1185 : 0;
  1186 : 0;
  1187 : 245;
  1188 : 14;
  1189 : 17;
  1190 : 253;
  1191 : 237;
  1192 : 11;
  1193 : 0;
  1194 : 240;
  1195 : 0;
  1196 : 238;
  1197 : 253;
  1198 : 8;
  1199 : 0;
  1200 : 247;
  1201 : 248;
  1202 : 255;
  1203 : 2;
  1204 : 0;
  1205 : 20;
  1206 : 244;
  1207 : 252;
  1208 : 1;
  1209 : 0;
  1210 : 253;
  1211 : 249;
  1212 : 2;
  1213 : 0;
  1214 : 0;
  1215 : 255;
  1216 : 254;
  1217 : 0;
  1218 : 250;
  1219 : 1;
  1220 : 19;
  1221 : 6;
  1222 : 250;
  1223 : 33;
  1224 : 251;
  1225 : 24;
  1226 : 245;
  1227 : 11;
  1228 : 14;
  1229 : 6;
  1230 : 0;
  1231 : 4;
  1232 : 0;
  1233 : 9;
  1234 : 0;
  1235 : 241;
  1236 : 7;
  1237 : 249;
  1238 : 14;
  1239 : 253;
  1240 : 17;
  1241 : 2;
  1242 : 0;
  1243 : 247;
  1244 : 252;
  1245 : 0;
  1246 : 239;
  1247 : 253;
  1248 : 237;
  1249 : 0;
  1250 : 0;
  1251 : 244;
  1252 : 18;
  1253 : 21;
  1254 : 21;
  1255 : 226;
  1256 : 19;
  1257 : 0;
  1258 : 252;
  1259 : 0;
  1260 : 249;
  1261 : 19;
  1262 : 0;
  1263 : 243;
  1264 : 247;
  1265 : 234;
  1266 : 252;
  1267 : 4;
  1268 : 0;
  1269 : 22;
  1270 : 238;
  1271 : 1;
  1272 : 239;
  1273 : 0;
  1274 : 243;
  1275 : 13;
  1276 : 31;
  1277 : 0;
  1278 : 248;
  1279 : 2;
  1280 : 30;
  1281 : 8;
  1282 : 18;
  1283 : 5;
  1284 : 18;
  1285 : 3;
  1286 : 12;
  1287 : 246;
  1288 : 253;
  1289 : 249;
  1290 : 232;
  1291 : 23;
  1292 : 209;
  1293 : 5;
  1294 : 252;
  1295 : 224;
  1296 : 0;
  1297 : 43;
  1298 : 0;
  1299 : 15;
  1300 : 238;
  1301 : 24;
  1302 : 243;
  1303 : 16;
  1304 : 253;
  1305 : 0;
  1306 : 0;
  1307 : 32;
  1308 : 3;
  1309 : 12;
  1310 : 222;
  1311 : 232;
  1312 : 212;
  1313 : 0;
  1314 : 0;
  1315 : 210;
  1316 : 51;
  1317 : 207;
  1318 : 41;
  1319 : 248;
  1320 : 220;
  1321 : 0;
  1322 : 246;
  1323 : 0;
  1324 : 9;
  1325 : 18;
  1326 : 0;
  1327 : 16;
  1328 : 0;
  1329 : 28;
  1330 : 245;
  1331 : 42;
  1332 : 248;
  1333 : 250;
  1334 : 249;
  1335 : 255;
  1336 : 17;
  1337 : 0;
  1338 : 50;
  1339 : 24;
  1340 : 254;
  1341 : 247;
  1342 : 10;
  1343 : 21;
  1344 : 234;
  1345 : 0;
  1346 : 26;
  1347 : 31;
  1348 : 21;
  1349 : 3;
  1350 : 219;
  1351 : 6;
  1352 : 10;
  1353 : 11;
  1354 : 228;
  1355 : 16;
  1356 : 7;
  1357 : 3;
  1358 : 235;
  1359 : 28;
  1360 : 0;
  1361 : 14;
  1362 : 0;
  1363 : 27;
  1364 : 253;
  1365 : 251;
  1366 : 29;
  1367 : 10;
  1368 : 2;
  1369 : 242;
  1370 : 0;
  1371 : 7;
  1372 : 253;
  1373 : 0;
  1374 : 241;
  1375 : 249;
  1376 : 27;
  1377 : 0;
  1378 : 0;
  1379 : 223;
  1380 : 242;
  1381 : 8;
  1382 : 4;
  1383 : 22;
  1384 : 14;
  1385 : 0;
  1386 : 250;
  1387 : 0;
  1388 : 228;
  1389 : 253;
  1390 : 0;
  1391 : 245;
  1392 : 0;
  1393 : 231;
  1394 : 254;
  1395 : 20;
  1396 : 0;
  1397 : 232;
  1398 : 237;
  1399 : 8;
  1400 : 229;
  1401 : 0;
  1402 : 246;
  1403 : 234;
  1404 : 14;
  1405 : 0;
  1406 : 0;
  1407 : 252;
  1408 : 237;
  1409 : 247;
  1410 : 38;
  1411 : 40;
  1412 : 19;
  1413 : 14;
  1414 : 16;
  1415 : 240;
  1416 : 19;
  1417 : 17;
  1418 : 24;
  1419 : 255;
  1420 : 5;
  1421 : 21;
  1422 : 244;
  1423 : 3;
  1424 : 0;
  1425 : 2;
  1426 : 7;
  1427 : 222;
  1428 : 237;
  1429 : 7;
  1430 : 242;
  1431 : 13;
  1432 : 238;
  1433 : 18;
  1434 : 0;
  1435 : 16;
  1436 : 226;
  1437 : 0;
  1438 : 248;
  1439 : 3;
  1440 : 14;
  1441 : 0;
  1442 : 0;
  1443 : 235;
  1444 : 42;
  1445 : 35;
  1446 : 18;
  1447 : 232;
  1448 : 31;
  1449 : 0;
  1450 : 252;
  1451 : 0;
  1452 : 235;
  1453 : 6;
  1454 : 0;
  1455 : 26;
  1456 : 0;
  1457 : 244;
  1458 : 1;
  1459 : 25;
  1460 : 0;
  1461 : 30;
  1462 : 243;
  1463 : 238;
  1464 : 249;
  1465 : 0;
  1466 : 250;
  1467 : 235;
  1468 : 35;
  1469 : 0;
  1470 : 245;
  1471 : 27;
  1472 : 238;
  1473 : 0;
  1474 : 254;
  1475 : 225;
  1476 : 246;
  1477 : 231;
  1478 : 240;
  1479 : 9;
  1480 : 210;
  1481 : 229;
  1482 : 205;
  1483 : 15;
  1484 : 3;
  1485 : 14;
  1486 : 41;
  1487 : 2;
  1488 : 0;
  1489 : 255;
  1490 : 0;
  1491 : 217;
  1492 : 15;
  1493 : 38;
  1494 : 16;
  1495 : 193;
  1496 : 255;
  1497 : 239;
  1498 : 0;
  1499 : 43;
  1500 : 23;
  1501 : 240;
  1502 : 9;
  1503 : 18;
  1504 : 223;
  1505 : 0;
  1506 : 0;
  1507 : 14;
  1508 : 1;
  1509 : 250;
  1510 : 250;
  1511 : 33;
  1512 : 228;
  1513 : 0;
  1514 : 12;
  1515 : 0;
  1516 : 14;
  1517 : 9;
  1518 : 0;
  1519 : 207;
  1520 : 0;
  1521 : 229;
  1522 : 228;
  1523 : 223;
  1524 : 0;
  1525 : 6;
  1526 : 44;
  1527 : 15;
  1528 : 46;
  1529 : 248;
  1530 : 32;
  1531 : 0;
  1532 : 238;
  1533 : 249;
  1534 : 0;
  1535 : 245;
  1536 : 247;
  1537 : 0;
  1538 : 3;
  1539 : 244;
  1540 : 248;
  1541 : 21;
  1542 : 231;
  1543 : 2;
  1544 : 7;
  1545 : 5;
  1546 : 250;
  1547 : 7;
  1548 : 253;
  1549 : 0;
  1550 : 13;
  1551 : 6;
  1552 : 0;
  1553 : 12;
  1554 : 0;
  1555 : 253;
  1556 : 12;
  1557 : 244;
  1558 : 250;
  1559 : 245;
  1560 : 16;
  1561 : 246;
  1562 : 247;
  1563 : 244;
  1564 : 244;
  1565 : 0;
  1566 : 4;
  1567 : 255;
  1568 : 253;
  1569 : 0;
  1570 : 0;
  1571 : 4;
  1572 : 9;
  1573 : 253;
  1574 : 250;
  1575 : 3;
  1576 : 3;
  1577 : 247;
  1578 : 8;
  1579 : 0;
  1580 : 11;
  1581 : 252;
  1582 : 248;
  1583 : 11;
  1584 : 0;
  1585 : 246;
  1586 : 239;
  1587 : 14;
  1588 : 0;
  1589 : 15;
  1590 : 2;
  1591 : 13;
  1592 : 12;
  1593 : 8;
  1594 : 14;
  1595 : 14;
  1596 : 253;
  1597 : 0;
  1598 : 247;
  1599 : 243;
  1600 : 244;
  1601 : 0;
  1602 : 7;
  1603 : 1;
  1604 : 252;
  1605 : 15;
  1606 : 255;
  1607 : 17;
  1608 : 245;
  1609 : 250;
  1610 : 224;
  1611 : 5;
  1612 : 1;
  1613 : 251;
  1614 : 9;
  1615 : 21;
  1616 : 0;
  1617 : 247;
  1618 : 247;
  1619 : 28;
  1620 : 8;
  1621 : 13;
  1622 : 4;
  1623 : 0;
  1624 : 2;
  1625 : 242;
  1626 : 0;
  1627 : 250;
  1628 : 35;
  1629 : 245;
  1630 : 253;
  1631 : 7;
  1632 : 250;
  1633 : 8;
  1634 : 0;
  1635 : 254;
  1636 : 244;
  1637 : 248;
  1638 : 3;
  1639 : 247;
  1640 : 239;
  1641 : 247;
  1642 : 20;
  1643 : 0;
  1644 : 246;
  1645 : 5;
  1646 : 0;
  1647 : 0;
  1648 : 0;
  1649 : 240;
  1650 : 208;
  1651 : 15;
  1652 : 0;
  1653 : 246;
  1654 : 253;
  1655 : 31;
  1656 : 1;
  1657 : 0;
  1658 : 19;
  1659 : 5;
  1660 : 225;
  1661 : 246;
  1662 : 0;
  1663 : 17;
  1664 : 3;
  1665 : 0;
  1666 : 0;
  1667 : 255;
  1668 : 2;
  1669 : 6;
  1670 : 249;
  1671 : 253;
  1672 : 244;
  1673 : 5;
  1674 : 245;
  1675 : 254;
  1676 : 5;
  1677 : 30;
  1678 : 242;
  1679 : 14;
  1680 : 248;
  1681 : 239;
  1682 : 0;
  1683 : 2;
  1684 : 5;
  1685 : 249;
  1686 : 0;
  1687 : 235;
  1688 : 0;
  1689 : 224;
  1690 : 0;
  1691 : 12;
  1692 : 0;
  1693 : 0;
  1694 : 2;
  1695 : 9;
  1696 : 12;
  1697 : 0;
  1698 : 0;
  1699 : 244;
  1700 : 0;
  1701 : 11;
  1702 : 6;
  1703 : 235;
  1704 : 8;
  1705 : 0;
  1706 : 9;
  1707 : 0;
  1708 : 255;
  1709 : 227;
  1710 : 0;
  1711 : 232;
  1712 : 246;
  1713 : 242;
  1714 : 251;
  1715 : 0;
  1716 : 0;
  1717 : 247;
  1718 : 246;
  1719 : 249;
  1720 : 7;
  1721 : 0;
  1722 : 249;
  1723 : 226;
  1724 : 22;
  1725 : 0;
  1726 : 244;
  1727 : 16;
  1728 : 219;
  1729 : 0;
  1730 : 10;
  1731 : 10;
  1732 : 249;
  1733 : 251;
  1734 : 246;
  1735 : 251;
  1736 : 242;
  1737 : 254;
  1738 : 252;
  1739 : 13;
  1740 : 246;
  1741 : 2;
  1742 : 10;
  1743 : 247;
  1744 : 0;
  1745 : 251;
  1746 : 8;
  1747 : 252;
  1748 : 4;
  1749 : 247;
  1750 : 19;
  1751 : 248;
  1752 : 250;
  1753 : 249;
  1754 : 0;
  1755 : 32;
  1756 : 1;
  1757 : 240;
  1758 : 14;
  1759 : 19;
  1760 : 237;
  1761 : 0;
  1762 : 0;
  1763 : 253;
  1764 : 18;
  1765 : 14;
  1766 : 1;
  1767 : 28;
  1768 : 251;
  1769 : 0;
  1770 : 15;
  1771 : 8;
  1772 : 12;
  1773 : 26;
  1774 : 247;
  1775 : 2;
  1776 : 0;
  1777 : 6;
  1778 : 254;
  1779 : 245;
  1780 : 0;
  1781 : 251;
  1782 : 1;
  1783 : 5;
  1784 : 10;
  1785 : 0;
  1786 : 12;
  1787 : 8;
  1788 : 5;
  1789 : 0;
  1790 : 248;
  1791 : 6;
  1792 : 234;
  1793 : 0;
  1794 : 243;
  1795 : 0;
  1796 : 241;
  1797 : 12;
  1798 : 3;
  1799 : 16;
  1800 : 10;
  1801 : 255;
  1802 : 247;
  1803 : 19;
  1804 : 242;
  1805 : 6;
  1806 : 246;
  1807 : 3;
  1808 : 0;
  1809 : 23;
  1810 : 0;
  1811 : 249;
  1812 : 29;
  1813 : 249;
  1814 : 7;
  1815 : 6;
  1816 : 1;
  1817 : 254;
  1818 : 0;
  1819 : 247;
  1820 : 233;
  1821 : 0;
  1822 : 249;
  1823 : 19;
  1824 : 255;
  1825 : 0;
  1826 : 0;
  1827 : 250;
  1828 : 246;
  1829 : 0;
  1830 : 0;
  1831 : 12;
  1832 : 254;
  1833 : 0;
  1834 : 13;
  1835 : 248;
  1836 : 18;
  1837 : 236;
  1838 : 0;
  1839 : 6;
  1840 : 247;
  1841 : 255;
  1842 : 241;
  1843 : 16;
  1844 : 0;
  1845 : 10;
  1846 : 253;
  1847 : 7;
  1848 : 19;
  1849 : 0;
  1850 : 253;
  1851 : 6;
  1852 : 240;
  1853 : 0;
  1854 : 0;
  1855 : 9;
  1856 : 254;
  1857 : 8;
  1858 : 255;
  1859 : 243;
  1860 : 254;
  1861 : 8;
  1862 : 250;
  1863 : 8;
  1864 : 1;
  1865 : 12;
  1866 : 232;
  1867 : 17;
  1868 : 246;
  1869 : 0;
  1870 : 251;
  1871 : 6;
  1872 : 0;
  1873 : 15;
  1874 : 0;
  1875 : 252;
  1876 : 15;
  1877 : 248;
  1878 : 235;
  1879 : 245;
  1880 : 4;
  1881 : 7;
  1882 : 0;
  1883 : 255;
  1884 : 235;
  1885 : 0;
  1886 : 1;
  1887 : 2;
  1888 : 255;
  1889 : 0;
  1890 : 8;
  1891 : 1;
  1892 : 245;
  1893 : 254;
  1894 : 0;
  1895 : 1;
  1896 : 7;
  1897 : 247;
  1898 : 255;
  1899 : 0;
  1900 : 4;
  1901 : 254;
  1902 : 0;
  1903 : 0;
  1904 : 0;
  1905 : 246;
  1906 : 253;
  1907 : 9;
  1908 : 0;
  1909 : 11;
  1910 : 2;
  1911 : 5;
  1912 : 16;
  1913 : 248;
  1914 : 4;
  1915 : 24;
  1916 : 10;
  1917 : 0;
  1918 : 0;
  1919 : 8;
  1920 : 235;
  1921 : 0;
  1922 : 244;
  1923 : 8;
  1924 : 15;
  1925 : 16;
  1926 : 241;
  1927 : 245;
  1928 : 255;
  1929 : 33;
  1930 : 228;
  1931 : 27;
  1932 : 237;
  1933 : 41;
  1934 : 247;
  1935 : 6;
  1936 : 0;
  1937 : 236;
  1938 : 0;
  1939 : 232;
  1940 : 18;
  1941 : 253;
  1942 : 237;
  1943 : 242;
  1944 : 1;
  1945 : 245;
  1946 : 0;
  1947 : 41;
  1948 : 30;
  1949 : 241;
  1950 : 246;
  1951 : 249;
  1952 : 247;
  1953 : 0;
  1954 : 0;
  1955 : 232;
  1956 : 33;
  1957 : 246;
  1958 : 13;
  1959 : 23;
  1960 : 248;
  1961 : 0;
  1962 : 37;
  1963 : 7;
  1964 : 11;
  1965 : 6;
  1966 : 0;
  1967 : 239;
  1968 : 246;
  1969 : 235;
  1970 : 252;
  1971 : 8;
  1972 : 8;
  1973 : 254;
  1974 : 245;
  1975 : 250;
  1976 : 245;
  1977 : 0;
  1978 : 5;
  1979 : 5;
  1980 : 253;
  1981 : 0;
  1982 : 0;
  1983 : 23;
  1984 : 2;
  1985 : 0;
  1986 : 250;
  1987 : 254;
  1988 : 246;
  1989 : 243;
  1990 : 29;
  1991 : 19;
  1992 : 236;
  1993 : 246;
  1994 : 247;
  1995 : 11;
  1996 : 240;
  1997 : 19;
  1998 : 5;
  1999 : 247;
  2000 : 247;
  2001 : 16;
  2002 : 0;
  2003 : 245;
  2004 : 21;
  2005 : 3;
  2006 : 237;
  2007 : 249;
  2008 : 0;
  2009 : 253;
  2010 : 248;
  2011 : 10;
  2012 : 252;
  2013 : 0;
  2014 : 3;
  2015 : 2;
  2016 : 8;
  2017 : 0;
  2018 : 248;
  2019 : 9;
  2020 : 251;
  2021 : 6;
  2022 : 7;
  2023 : 8;
  2024 : 20;
  2025 : 0;
  2026 : 24;
  2027 : 0;
  2028 : 20;
  2029 : 251;
  2030 : 0;
  2031 : 21;
  2032 : 0;
  2033 : 3;
  2034 : 4;
  2035 : 243;
  2036 : 0;
  2037 : 13;
  2038 : 18;
  2039 : 231;
  2040 : 28;
  2041 : 0;
  2042 : 12;
  2043 : 242;
  2044 : 1;
  2045 : 247;
  2046 : 0;
  2047 : 9;
  2048 : 9;
  2049 : 0;
  2050 : 0;
  2051 : 3;
  2052 : 3;
  2053 : 7;
  2054 : 0;
  2055 : 249;
  2056 : 13;
  2057 : 15;
  2058 : 0;
  2059 : 3;
  2060 : 1;
  2061 : 0;
  2062 : 9;
  2063 : 19;
  2064 : 0;
  2065 : 12;
  2066 : 0;
  2067 : 240;
  2068 : 6;
  2069 : 254;
  2070 : 1;
  2071 : 247;
  2072 : 6;
  2073 : 0;
  2074 : 0;
  2075 : 247;
  2076 : 254;
  2077 : 0;
  2078 : 15;
  2079 : 254;
  2080 : 5;
  2081 : 0;
  2082 : 0;
  2083 : 0;
  2084 : 9;
  2085 : 20;
  2086 : 0;
  2087 : 247;
  2088 : 10;
  2089 : 0;
  2090 : 0;
  2091 : 0;
  2092 : 4;
  2093 : 254;
  2094 : 0;
  2095 : 0;
  2096 : 9;
  2097 : 243;
  2098 : 249;
  2099 : 0;
  2100 : 0;
  2101 : 252;
  2102 : 253;
  2103 : 19;
  2104 : 2;
  2105 : 246;
  2106 : 2;
  2107 : 12;
  2108 : 0;
  2109 : 0;
  2110 : 0;
  2111 : 0;
  2112 : 242;
  2113 : 0;
  2114 : 239;
  2115 : 247;
  2116 : 233;
  2117 : 14;
  2118 : 1;
  2119 : 255;
  2120 : 245;
  2121 : 248;
  2122 : 215;
  2123 : 2;
  2124 : 8;
  2125 : 17;
  2126 : 4;
  2127 : 34;
  2128 : 0;
  2129 : 255;
  2130 : 0;
  2131 : 244;
  2132 : 26;
  2133 : 27;
  2134 : 251;
  2135 : 220;
  2136 : 251;
  2137 : 219;
  2138 : 0;
  2139 : 26;
  2140 : 8;
  2141 : 0;
  2142 : 11;
  2143 : 9;
  2144 : 248;
  2145 : 0;
  2146 : 8;
  2147 : 9;
  2148 : 0;
  2149 : 250;
  2150 : 2;
  2151 : 255;
  2152 : 4;
  2153 : 248;
  2154 : 253;
  2155 : 248;
  2156 : 3;
  2157 : 252;
  2158 : 249;
  2159 : 211;
  2160 : 0;
  2161 : 232;
  2162 : 244;
  2163 : 248;
  2164 : 0;
  2165 : 14;
  2166 : 31;
  2167 : 254;
  2168 : 8;
  2169 : 0;
  2170 : 16;
  2171 : 243;
  2172 : 246;
  2173 : 0;
  2174 : 245;
  2175 : 22;
  2176 : 250;
  2177 : 0;
  2178 : 251;
  2179 : 254;
  2180 : 1;
  2181 : 51;
  2182 : 243;
  2183 : 243;
  2184 : 14;
  2185 : 13;
  2186 : 0;
  2187 : 17;
  2188 : 247;
  2189 : 26;
  2190 : 237;
  2191 : 11;
  2192 : 0;
  2193 : 238;
  2194 : 0;
  2195 : 220;
  2196 : 11;
  2197 : 18;
  2198 : 252;
  2199 : 223;
  2200 : 21;
  2201 : 250;
  2202 : 0;
  2203 : 41;
  2204 : 26;
  2205 : 245;
  2206 : 231;
  2207 : 244;
  2208 : 11;
  2209 : 0;
  2210 : 0;
  2211 : 242;
  2212 : 19;
  2213 : 242;
  2214 : 31;
  2215 : 19;
  2216 : 240;
  2217 : 0;
  2218 : 21;
  2219 : 0;
  2220 : 25;
  2221 : 29;
  2222 : 0;
  2223 : 245;
  2224 : 0;
  2225 : 9;
  2226 : 243;
  2227 : 5;
  2228 : 0;
  2229 : 3;
  2230 : 2;
  2231 : 254;
  2232 : 252;
  2233 : 0;
  2234 : 21;
  2235 : 250;
  2236 : 231;
  2237 : 249;
  2238 : 0;
  2239 : 12;
  2240 : 15;
  2241 : 0;
  2242 : 254;
  2243 : 254;
  2244 : 239;
  2245 : 1;
  2246 : 20;
  2247 : 253;
  2248 : 31;
  2249 : 15;
  2250 : 199;
  2251 : 218;
  2252 : 252;
  2253 : 0;
  2254 : 237;
  2255 : 254;
  2256 : 0;
  2257 : 235;
  2258 : 0;
  2259 : 21;
  2260 : 231;
  2261 : 4;
  2262 : 0;
  2263 : 246;
  2264 : 21;
  2265 : 251;
  2266 : 0;
  2267 : 251;
  2268 : 235;
  2269 : 0;
  2270 : 244;
  2271 : 237;
  2272 : 5;
  2273 : 0;
  2274 : 0;
  2275 : 242;
  2276 : 16;
  2277 : 2;
  2278 : 3;
  2279 : 3;
  2280 : 245;
  2281 : 0;
  2282 : 247;
  2283 : 0;
  2284 : 251;
  2285 : 251;
  2286 : 0;
  2287 : 0;
  2288 : 0;
  2289 : 12;
  2290 : 255;
  2291 : 33;
  2292 : 0;
  2293 : 15;
  2294 : 245;
  2295 : 32;
  2296 : 244;
  2297 : 0;
  2298 : 0;
  2299 : 243;
  2300 : 8;
  2301 : 247;
  2302 : 0;
  2303 : 18;
  2304 : 1;
  2305 : 0;
  2306 : 255;
  2307 : 32;
  2308 : 253;
  2309 : 249;
  2310 : 4;
  2311 : 252;
  2312 : 244;
  2313 : 23;
  2314 : 17;
  2315 : 250;
  2316 : 9;
  2317 : 12;
  2318 : 243;
  2319 : 1;
  2320 : 0;
  2321 : 7;
  2322 : 0;
  2323 : 11;
  2324 : 242;
  2325 : 246;
  2326 : 33;
  2327 : 38;
  2328 : 226;
  2329 : 15;
  2330 : 246;
  2331 : 0;
  2332 : 15;
  2333 : 0;
  2334 : 11;
  2335 : 243;
  2336 : 10;
  2337 : 249;
  2338 : 0;
  2339 : 250;
  2340 : 14;
  2341 : 18;
  2342 : 13;
  2343 : 255;
  2344 : 1;
  2345 : 0;
  2346 : 3;
  2347 : 0;
  2348 : 7;
  2349 : 242;
  2350 : 0;
  2351 : 238;
  2352 : 0;
  2353 : 21;
  2354 : 14;
  2355 : 4;
  2356 : 0;
  2357 : 231;
  2358 : 247;
  2359 : 242;
  2360 : 0;
  2361 : 244;
  2362 : 245;
  2363 : 3;
  2364 : 22;
  2365 : 0;
  2366 : 0;
  2367 : 14;
  2368 : 255;
  2369 : 246;
  2370 : 0;
  2371 : 6;
  2372 : 246;
  2373 : 10;
  2374 : 243;
  2375 : 28;
  2376 : 3;
  2377 : 14;
  2378 : 249;
  2379 : 255;
  2380 : 8;
  2381 : 245;
  2382 : 3;
  2383 : 5;
  2384 : 0;
  2385 : 255;
  2386 : 9;
  2387 : 251;
  2388 : 3;
  2389 : 251;
  2390 : 9;
  2391 : 0;
  2392 : 21;
  2393 : 245;
  2394 : 0;
  2395 : 245;
  2396 : 250;
  2397 : 0;
  2398 : 13;
  2399 : 249;
  2400 : 0;
  2401 : 0;
  2402 : 0;
  2403 : 244;
  2404 : 248;
  2405 : 26;
  2406 : 7;
  2407 : 244;
  2408 : 16;
  2409 : 8;
  2410 : 1;
  2411 : 0;
  2412 : 249;
  2413 : 4;
  2414 : 0;
  2415 : 247;
  2416 : 247;
  2417 : 11;
  2418 : 247;
  2419 : 254;
  2420 : 246;
  2421 : 22;
  2422 : 235;
  2423 : 5;
  2424 : 239;
  2425 : 246;
  2426 : 241;
  2427 : 252;
  2428 : 4;
  2429 : 0;
  2430 : 0;
  2431 : 6;
  2432 : 240;
  2433 : 0;
  2434 : 13;
  2435 : 13;
  2436 : 7;
  2437 : 15;
  2438 : 251;
  2439 : 12;
  2440 : 12;
  2441 : 13;
  2442 : 223;
  2443 : 251;
  2444 : 8;
  2445 : 9;
  2446 : 235;
  2447 : 245;
  2448 : 0;
  2449 : 252;
  2450 : 0;
  2451 : 9;
  2452 : 3;
  2453 : 8;
  2454 : 20;
  2455 : 15;
  2456 : 5;
  2457 : 248;
  2458 : 0;
  2459 : 15;
  2460 : 233;
  2461 : 0;
  2462 : 250;
  2463 : 242;
  2464 : 9;
  2465 : 0;
  2466 : 0;
  2467 : 236;
  2468 : 12;
  2469 : 8;
  2470 : 4;
  2471 : 249;
  2472 : 252;
  2473 : 0;
  2474 : 5;
  2475 : 0;
  2476 : 243;
  2477 : 244;
  2478 : 8;
  2479 : 240;
  2480 : 0;
  2481 : 3;
  2482 : 254;
  2483 : 14;
  2484 : 0;
  2485 : 252;
  2486 : 232;
  2487 : 3;
  2488 : 231;
  2489 : 0;
  2490 : 243;
  2491 : 2;
  2492 : 251;
  2493 : 0;
  2494 : 0;
  2495 : 9;
  2496 : 7;
  2497 : 246;
  2498 : 229;
  2499 : 246;
  2500 : 225;
  2501 : 33;
  2502 : 18;
  2503 : 4;
  2504 : 23;
  2505 : 5;
  2506 : 196;
  2507 : 242;
  2508 : 0;
  2509 : 16;
  2510 : 229;
  2511 : 11;
  2512 : 0;
  2513 : 227;
  2514 : 9;
  2515 : 10;
  2516 : 255;
  2517 : 7;
  2518 : 245;
  2519 : 1;
  2520 : 253;
  2521 : 238;
  2522 : 0;
  2523 : 5;
  2524 : 3;
  2525 : 0;
  2526 : 7;
  2527 : 248;
  2528 : 17;
  2529 : 0;
  2530 : 0;
  2531 : 4;
  2532 : 7;
  2533 : 237;
  2534 : 5;
  2535 : 9;
  2536 : 2;
  2537 : 0;
  2538 : 12;
  2539 : 0;
  2540 : 2;
  2541 : 243;
  2542 : 0;
  2543 : 224;
  2544 : 0;
  2545 : 17;
  2546 : 0;
  2547 : 5;
  2548 : 246;
  2549 : 0;
  2550 : 248;
  2551 : 25;
  2552 : 229;
  2553 : 0;
  2554 : 254;
  2555 : 235;
  2556 : 247;
  2557 : 0;
  2558 : 0;
  2559 : 11;
  2560 : 17;
  2561 : 0;
  2562 : 7;
  2563 : 223;
  2564 : 21;
  2565 : 252;
  2566 : 47;
  2567 : 231;
  2568 : 222;
  2569 : 20;
  2570 : 244;
  2571 : 18;
  2572 : 253;
  2573 : 10;
  2574 : 12;
  2575 : 13;
  2576 : 249;
  2577 : 253;
  2578 : 0;
  2579 : 228;
  2580 : 61;
  2581 : 0;
  2582 : 11;
  2583 : 4;
  2584 : 213;
  2585 : 250;
  2586 : 0;
  2587 : 44;
  2588 : 237;
  2589 : 0;
  2590 : 39;
  2591 : 255;
  2592 : 255;
  2593 : 0;
  2594 : 246;
  2595 : 29;
  2596 : 1;
  2597 : 242;
  2598 : 28;
  2599 : 245;
  2600 : 238;
  2601 : 0;
  2602 : 252;
  2603 : 0;
  2604 : 250;
  2605 : 245;
  2606 : 10;
  2607 : 214;
  2608 : 248;
  2609 : 252;
  2610 : 30;
  2611 : 244;
  2612 : 0;
  2613 : 255;
  2614 : 232;
  2615 : 250;
  2616 : 5;
  2617 : 0;
  2618 : 8;
  2619 : 22;
  2620 : 249;
  2621 : 0;
  2622 : 0;
  2623 : 204;
  2624 : 244;
  2625 : 0;
  2626 : 255;
  2627 : 4;
  2628 : 12;
  2629 : 254;
  2630 : 3;
  2631 : 16;
  2632 : 234;
  2633 : 246;
  2634 : 228;
  2635 : 76;
  2636 : 212;
  2637 : 32;
  2638 : 2;
  2639 : 234;
  2640 : 0;
  2641 : 47;
  2642 : 0;
  2643 : 8;
  2644 : 36;
  2645 : 4;
  2646 : 219;
  2647 : 35;
  2648 : 243;
  2649 : 254;
  2650 : 0;
  2651 : 21;
  2652 : 254;
  2653 : 0;
  2654 : 238;
  2655 : 18;
  2656 : 235;
  2657 : 0;
  2658 : 0;
  2659 : 12;
  2660 : 37;
  2661 : 228;
  2662 : 44;
  2663 : 2;
  2664 : 247;
  2665 : 0;
  2666 : 38;
  2667 : 0;
  2668 : 13;
  2669 : 26;
  2670 : 0;
  2671 : 10;
  2672 : 0;
  2673 : 20;
  2674 : 241;
  2675 : 241;
  2676 : 0;
  2677 : 244;
  2678 : 244;
  2679 : 225;
  2680 : 54;
  2681 : 0;
  2682 : 30;
  2683 : 28;
  2684 : 236;
  2685 : 0;
  2686 : 0;
  2687 : 30;
  2688 : 247;
  2689 : 0;
  2690 : 12;
  2691 : 4;
  2692 : 30;
  2693 : 32;
  2694 : 11;
  2695 : 239;
  2696 : 251;
  2697 : 32;
  2698 : 245;
  2699 : 251;
  2700 : 235;
  2701 : 2;
  2702 : 221;
  2703 : 236;
  2704 : 0;
  2705 : 235;
  2706 : 247;
  2707 : 9;
  2708 : 62;
  2709 : 247;
  2710 : 250;
  2711 : 12;
  2712 : 0;
  2713 : 10;
  2714 : 0;
  2715 : 53;
  2716 : 9;
  2717 : 0;
  2718 : 255;
  2719 : 248;
  2720 : 247;
  2721 : 0;
  2722 : 8;
  2723 : 229;
  2724 : 39;
  2725 : 2;
  2726 : 21;
  2727 : 14;
  2728 : 1;
  2729 : 0;
  2730 : 39;
  2731 : 247;
  2732 : 8;
  2733 : 32;
  2734 : 0;
  2735 : 254;
  2736 : 0;
  2737 : 242;
  2738 : 8;
  2739 : 14;
  2740 : 0;
  2741 : 232;
  2742 : 215;
  2743 : 249;
  2744 : 224;
  2745 : 0;
  2746 : 250;
  2747 : 36;
  2748 : 242;
  2749 : 0;
  2750 : 0;
  2751 : 247;
  2752 : 246;
  2753 : 0;
  2754 : 247;
  2755 : 22;
  2756 : 244;
  2757 : 22;
  2758 : 3;
  2759 : 9;
  2760 : 2;
  2761 : 29;
  2762 : 252;
  2763 : 3;
  2764 : 20;
  2765 : 4;
  2766 : 239;
  2767 : 10;
  2768 : 0;
  2769 : 254;
  2770 : 0;
  2771 : 16;
  2772 : 249;
  2773 : 11;
  2774 : 27;
  2775 : 32;
  2776 : 248;
  2777 : 8;
  2778 : 0;
  2779 : 251;
  2780 : 250;
  2781 : 0;
  2782 : 4;
  2783 : 252;
  2784 : 26;
  2785 : 0;
  2786 : 0;
  2787 : 6;
  2788 : 23;
  2789 : 20;
  2790 : 7;
  2791 : 251;
  2792 : 7;
  2793 : 0;
  2794 : 239;
  2795 : 246;
  2796 : 1;
  2797 : 242;
  2798 : 0;
  2799 : 202;
  2800 : 247;
  2801 : 246;
  2802 : 248;
  2803 : 12;
  2804 : 249;
  2805 : 250;
  2806 : 10;
  2807 : 254;
  2808 : 234;
  2809 : 0;
  2810 : 254;
  2811 : 217;
  2812 : 15;
  2813 : 0;
  2814 : 0;
  2815 : 12;
  2816 : 246;
  2817 : 0;
  2818 : 9;
  2819 : 0;
  2820 : 14;
  2821 : 0;
  2822 : 12;
  2823 : 0;
  2824 : 0;
  2825 : 247;
  2826 : 0;
  2827 : 0;
  2828 : 246;
  2829 : 0;
  2830 : 11;
  2831 : 241;
  2832 : 0;
  2833 : 0;
  2834 : 0;
  2835 : 8;
  2836 : 0;
  2837 : 8;
  2838 : 0;
  2839 : 0;
  2840 : 245;
  2841 : 247;
  2842 : 0;
  2843 : 0;
  2844 : 0;
  2845 : 0;
  2846 : 0;
  2847 : 0;
  2848 : 0;
  2849 : 245;
  2850 : 0;
  2851 : 0;
  2852 : 0;
  2853 : 0;
  2854 : 0;
  2855 : 242;
  2856 : 244;
  2857 : 0;
  2858 : 7;
  2859 : 0;
  2860 : 244;
  2861 : 0;
  2862 : 7;
  2863 : 0;
  2864 : 10;
  2865 : 248;
  2866 : 0;
  2867 : 9;
  2868 : 0;
  2869 : 247;
  2870 : 0;
  2871 : 0;
  2872 : 0;
  2873 : 0;
  2874 : 0;
  2875 : 0;
  2876 : 0;
  2877 : 247;
  2878 : 0;
  2879 : 0;
  2880 : 254;
  2881 : 0;
  2882 : 255;
  2883 : 234;
  2884 : 223;
  2885 : 37;
  2886 : 23;
  2887 : 16;
  2888 : 11;
  2889 : 47;
  2890 : 244;
  2891 : 240;
  2892 : 24;
  2893 : 13;
  2894 : 244;
  2895 : 10;
  2896 : 0;
  2897 : 219;
  2898 : 248;
  2899 : 6;
  2900 : 21;
  2901 : 6;
  2902 : 244;
  2903 : 19;
  2904 : 11;
  2905 : 238;
  2906 : 0;
  2907 : 2;
  2908 : 7;
  2909 : 0;
  2910 : 9;
  2911 : 223;
  2912 : 253;
  2913 : 0;
  2914 : 10;
  2915 : 8;
  2916 : 24;
  2917 : 16;
  2918 : 8;
  2919 : 234;
  2920 : 3;
  2921 : 0;
  2922 : 243;
  2923 : 0;
  2924 : 3;
  2925 : 16;
  2926 : 246;
  2927 : 239;
  2928 : 8;
  2929 : 254;
  2930 : 248;
  2931 : 2;
  2932 : 0;
  2933 : 24;
  2934 : 229;
  2935 : 249;
  2936 : 231;
  2937 : 0;
  2938 : 242;
  2939 : 12;
  2940 : 244;
  2941 : 0;
  2942 : 0;
  2943 : 2;
  2944 : 245;
  2945 : 0;
  2946 : 239;
  2947 : 239;
  2948 : 16;
  2949 : 247;
  2950 : 8;
  2951 : 250;
  2952 : 242;
  2953 : 245;
  2954 : 231;
  2955 : 4;
  2956 : 6;
  2957 : 16;
  2958 : 13;
  2959 : 20;
  2960 : 0;
  2961 : 253;
  2962 : 0;
  2963 : 221;
  2964 : 24;
  2965 : 9;
  2966 : 2;
  2967 : 207;
  2968 : 253;
  2969 : 216;
  2970 : 0;
  2971 : 22;
  2972 : 7;
  2973 : 0;
  2974 : 24;
  2975 : 4;
  2976 : 9;
  2977 : 0;
  2978 : 0;
  2979 : 24;
  2980 : 2;
  2981 : 250;
  2982 : 244;
  2983 : 245;
  2984 : 7;
  2985 : 0;
  2986 : 5;
  2987 : 0;
  2988 : 250;
  2989 : 237;
  2990 : 245;
  2991 : 212;
  2992 : 0;
  2993 : 233;
  2994 : 19;
  2995 : 234;
  2996 : 9;
  2997 : 8;
  2998 : 13;
  2999 : 252;
  3000 : 21;
  3001 : 246;
  3002 : 6;
  3003 : 242;
  3004 : 7;
  3005 : 0;
  3006 : 246;
  3007 : 247;
  3008 : 252;
  3009 : 0;
  3010 : 30;
  3011 : 15;
  3012 : 9;
  3013 : 26;
  3014 : 3;
  3015 : 245;
  3016 : 27;
  3017 : 255;
  3018 : 19;
  3019 : 238;
  3020 : 8;
  3021 : 29;
  3022 : 238;
  3023 : 3;
  3024 : 8;
  3025 : 7;
  3026 : 0;
  3027 : 246;
  3028 : 4;
  3029 : 247;
  3030 : 6;
  3031 : 18;
  3032 : 243;
  3033 : 248;
  3034 : 246;
  3035 : 254;
  3036 : 241;
  3037 : 243;
  3038 : 10;
  3039 : 14;
  3040 : 12;
  3041 : 0;
  3042 : 0;
  3043 : 0;
  3044 : 3;
  3045 : 19;
  3046 : 10;
  3047 : 240;
  3048 : 23;
  3049 : 0;
  3050 : 242;
  3051 : 0;
  3052 : 241;
  3053 : 252;
  3054 : 0;
  3055 : 37;
  3056 : 0;
  3057 : 1;
  3058 : 246;
  3059 : 16;
  3060 : 8;
  3061 : 5;
  3062 : 252;
  3063 : 245;
  3064 : 232;
  3065 : 0;
  3066 : 239;
  3067 : 237;
  3068 : 32;
  3069 : 0;
  3070 : 0;
  3071 : 16;
  3072 : 213;
  3073 : 0;
  3074 : 42;
  3075 : 35;
  3076 : 32;
  3077 : 250;
  3078 : 230;
  3079 : 245;
  3080 : 0;
  3081 : 0;
  3082 : 240;
  3083 : 1;
  3084 : 9;
  3085 : 255;
  3086 : 7;
  3087 : 21;
  3088 : 0;
  3089 : 247;
  3090 : 9;
  3091 : 31;
  3092 : 237;
  3093 : 235;
  3094 : 20;
  3095 : 234;
  3096 : 235;
  3097 : 3;
  3098 : 0;
  3099 : 5;
  3100 : 19;
  3101 : 246;
  3102 : 0;
  3103 : 43;
  3104 : 15;
  3105 : 8;
  3106 : 0;
  3107 : 251;
  3108 : 246;
  3109 : 22;
  3110 : 16;
  3111 : 26;
  3112 : 8;
  3113 : 0;
  3114 : 0;
  3115 : 0;
  3116 : 244;
  3117 : 247;
  3118 : 0;
  3119 : 234;
  3120 : 0;
  3121 : 220;
  3122 : 241;
  3123 : 10;
  3124 : 0;
  3125 : 226;
  3126 : 244;
  3127 : 3;
  3128 : 247;
  3129 : 0;
  3130 : 234;
  3131 : 13;
  3132 : 9;
  3133 : 248;
  3134 : 246;
  3135 : 255;
  3136 : 253;
  3137 : 0;
  3138 : 244;
  3139 : 4;
  3140 : 246;
  3141 : 11;
  3142 : 10;
  3143 : 252;
  3144 : 243;
  3145 : 249;
  3146 : 7;
  3147 : 5;
  3148 : 14;
  3149 : 5;
  3150 : 229;
  3151 : 7;
  3152 : 0;
  3153 : 1;
  3154 : 0;
  3155 : 32;
  3156 : 4;
  3157 : 18;
  3158 : 13;
  3159 : 12;
  3160 : 220;
  3161 : 9;
  3162 : 0;
  3163 : 4;
  3164 : 0;
  3165 : 0;
  3166 : 6;
  3167 : 242;
  3168 : 18;
  3169 : 248;
  3170 : 0;
  3171 : 246;
  3172 : 6;
  3173 : 255;
  3174 : 8;
  3175 : 249;
  3176 : 251;
  3177 : 0;
  3178 : 12;
  3179 : 0;
  3180 : 245;
  3181 : 246;
  3182 : 0;
  3183 : 190;
  3184 : 0;
  3185 : 1;
  3186 : 248;
  3187 : 1;
  3188 : 0;
  3189 : 248;
  3190 : 12;
  3191 : 241;
  3192 : 235;
  3193 : 0;
  3194 : 3;
  3195 : 223;
  3196 : 254;
  3197 : 0;
  3198 : 0;
  3199 : 16;
  3200 : 3;
  3201 : 0;
  3202 : 251;
  3203 : 226;
  3204 : 242;
  3205 : 21;
  3206 : 238;
  3207 : 239;
  3208 : 242;
  3209 : 19;
  3210 : 190;
  3211 : 220;
  3212 : 251;
  3213 : 22;
  3214 : 236;
  3215 : 34;
  3216 : 0;
  3217 : 228;
  3218 : 0;
  3219 : 14;
  3220 : 32;
  3221 : 4;
  3222 : 245;
  3223 : 13;
  3224 : 243;
  3225 : 241;
  3226 : 0;
  3227 : 31;
  3228 : 251;
  3229 : 248;
  3230 : 9;
  3231 : 250;
  3232 : 248;
  3233 : 0;
  3234 : 0;
  3235 : 17;
  3236 : 11;
  3237 : 236;
  3238 : 236;
  3239 : 21;
  3240 : 251;
  3241 : 0;
  3242 : 15;
  3243 : 0;
  3244 : 255;
  3245 : 241;
  3246 : 0;
  3247 : 1;
  3248 : 0;
  3249 : 3;
  3250 : 243;
  3251 : 11;
  3252 : 0;
  3253 : 2;
  3254 : 5;
  3255 : 7;
  3256 : 1;
  3257 : 247;
  3258 : 251;
  3259 : 18;
  3260 : 0;
  3261 : 0;
  3262 : 0;
  3263 : 12;
  3264 : 246;
  3265 : 0;
  3266 : 234;
  3267 : 4;
  3268 : 244;
  3269 : 2;
  3270 : 6;
  3271 : 252;
  3272 : 251;
  3273 : 3;
  3274 : 201;
  3275 : 238;
  3276 : 251;
  3277 : 26;
  3278 : 251;
  3279 : 1;
  3280 : 244;
  3281 : 238;
  3282 : 0;
  3283 : 23;
  3284 : 5;
  3285 : 2;
  3286 : 12;
  3287 : 247;
  3288 : 236;
  3289 : 241;
  3290 : 0;
  3291 : 4;
  3292 : 2;
  3293 : 246;
  3294 : 250;
  3295 : 3;
  3296 : 8;
  3297 : 0;
  3298 : 0;
  3299 : 8;
  3300 : 250;
  3301 : 245;
  3302 : 253;
  3303 : 7;
  3304 : 253;
  3305 : 0;
  3306 : 19;
  3307 : 0;
  3308 : 246;
  3309 : 236;
  3310 : 248;
  3311 : 228;
  3312 : 246;
  3313 : 247;
  3314 : 1;
  3315 : 0;
  3316 : 0;
  3317 : 247;
  3318 : 252;
  3319 : 16;
  3320 : 252;
  3321 : 0;
  3322 : 4;
  3323 : 244;
  3324 : 8;
  3325 : 0;
  3326 : 248;
  3327 : 16;
  3328 : 24;
  3329 : 0;
  3330 : 249;
  3331 : 246;
  3332 : 16;
  3333 : 222;
  3334 : 15;
  3335 : 11;
  3336 : 225;
  3337 : 21;
  3338 : 215;
  3339 : 51;
  3340 : 225;
  3341 : 0;
  3342 : 251;
  3343 : 242;
  3344 : 0;
  3345 : 35;
  3346 : 8;
  3347 : 20;
  3348 : 28;
  3349 : 8;
  3350 : 242;
  3351 : 255;
  3352 : 30;
  3353 : 7;
  3354 : 0;
  3355 : 60;
  3356 : 15;
  3357 : 8;
  3358 : 238;
  3359 : 240;
  3360 : 233;
  3361 : 0;
  3362 : 0;
  3363 : 247;
  3364 : 7;
  3365 : 201;
  3366 : 29;
  3367 : 12;
  3368 : 250;
  3369 : 0;
  3370 : 23;
  3371 : 0;
  3372 : 247;
  3373 : 12;
  3374 : 0;
  3375 : 251;
  3376 : 8;
  3377 : 7;
  3378 : 16;
  3379 : 6;
  3380 : 248;
  3381 : 18;
  3382 : 248;
  3383 : 251;
  3384 : 25;
  3385 : 246;
  3386 : 42;
  3387 : 19;
  3388 : 252;
  3389 : 0;
  3390 : 0;
  3391 : 1;
  3392 : 228;
  3393 : 247;
  3394 : 26;
  3395 : 39;
  3396 : 16;
  3397 : 6;
  3398 : 5;
  3399 : 245;
  3400 : 9;
  3401 : 8;
  3402 : 7;
  3403 : 16;
  3404 : 248;
  3405 : 10;
  3406 : 225;
  3407 : 0;
  3408 : 0;
  3409 : 22;
  3410 : 249;
  3411 : 36;
  3412 : 249;
  3413 : 4;
  3414 : 22;
  3415 : 47;
  3416 : 232;
  3417 : 10;
  3418 : 0;
  3419 : 20;
  3420 : 250;
  3421 : 0;
  3422 : 241;
  3423 : 251;
  3424 : 36;
  3425 : 247;
  3426 : 0;
  3427 : 240;
  3428 : 2;
  3429 : 4;
  3430 : 37;
  3431 : 9;
  3432 : 255;
  3433 : 0;
  3434 : 12;
  3435 : 0;
  3436 : 239;
  3437 : 250;
  3438 : 9;
  3439 : 10;
  3440 : 0;
  3441 : 10;
  3442 : 5;
  3443 : 26;
  3444 : 0;
  3445 : 225;
  3446 : 1;
  3447 : 0;
  3448 : 237;
  3449 : 0;
  3450 : 8;
  3451 : 240;
  3452 : 254;
  3453 : 0;
  3454 : 8;
  3455 : 15;
  3456 : 255;
  3457 : 0;
  3458 : 243;
  3459 : 224;
  3460 : 209;
  3461 : 63;
  3462 : 253;
  3463 : 28;
  3464 : 37;
  3465 : 254;
  3466 : 232;
  3467 : 12;
  3468 : 15;
  3469 : 14;
  3470 : 224;
  3471 : 243;
  3472 : 248;
  3473 : 230;
  3474 : 0;
  3475 : 251;
  3476 : 251;
  3477 : 50;
  3478 : 239;
  3479 : 2;
  3480 : 49;
  3481 : 19;
  3482 : 0;
  3483 : 21;
  3484 : 216;
  3485 : 0;
  3486 : 227;
  3487 : 5;
  3488 : 235;
  3489 : 246;
  3490 : 0;
  3491 : 212;
  3492 : 26;
  3493 : 245;
  3494 : 5;
  3495 : 242;
  3496 : 240;
  3497 : 0;
  3498 : 6;
  3499 : 0;
  3500 : 251;
  3501 : 58;
  3502 : 0;
  3503 : 252;
  3504 : 0;
  3505 : 238;
  3506 : 186;
  3507 : 19;
  3508 : 0;
  3509 : 70;
  3510 : 0;
  3511 : 39;
  3512 : 220;
  3513 : 0;
  3514 : 33;
  3515 : 47;
  3516 : 228;
  3517 : 8;
  3518 : 0;
  3519 : 12;
  3520 : 253;
  3521 : 0;
  3522 : 0;
  3523 : 1;
  3524 : 249;
  3525 : 1;
  3526 : 252;
  3527 : 21;
  3528 : 11;
  3529 : 15;
  3530 : 245;
  3531 : 3;
  3532 : 22;
  3533 : 0;
  3534 : 1;
  3535 : 255;
  3536 : 0;
  3537 : 2;
  3538 : 0;
  3539 : 2;
  3540 : 255;
  3541 : 242;
  3542 : 1;
  3543 : 0;
  3544 : 6;
  3545 : 0;
  3546 : 0;
  3547 : 249;
  3548 : 245;
  3549 : 244;
  3550 : 3;
  3551 : 10;
  3552 : 254;
  3553 : 248;
  3554 : 0;
  3555 : 0;
  3556 : 255;
  3557 : 20;
  3558 : 253;
  3559 : 243;
  3560 : 20;
  3561 : 248;
  3562 : 240;
  3563 : 0;
  3564 : 246;
  3565 : 255;
  3566 : 247;
  3567 : 0;
  3568 : 0;
  3569 : 254;
  3570 : 250;
  3571 : 251;
  3572 : 0;
  3573 : 17;
  3574 : 252;
  3575 : 7;
  3576 : 2;
  3577 : 7;
  3578 : 251;
  3579 : 254;
  3580 : 2;
  3581 : 8;
  3582 : 0;
  3583 : 14;
  3584 : 252;
  3585 : 8;
  3586 : 5;
  3587 : 252;
  3588 : 3;
  3589 : 31;
  3590 : 8;
  3591 : 248;
  3592 : 36;
  3593 : 43;
  3594 : 254;
  3595 : 40;
  3596 : 2;
  3597 : 0;
  3598 : 217;
  3599 : 244;
  3600 : 0;
  3601 : 243;
  3602 : 0;
  3603 : 246;
  3604 : 19;
  3605 : 4;
  3606 : 239;
  3607 : 241;
  3608 : 29;
  3609 : 5;
  3610 : 0;
  3611 : 31;
  3612 : 219;
  3613 : 245;
  3614 : 249;
  3615 : 248;
  3616 : 216;
  3617 : 0;
  3618 : 0;
  3619 : 198;
  3620 : 29;
  3621 : 21;
  3622 : 15;
  3623 : 229;
  3624 : 19;
  3625 : 0;
  3626 : 15;
  3627 : 248;
  3628 : 221;
  3629 : 8;
  3630 : 8;
  3631 : 251;
  3632 : 0;
  3633 : 218;
  3634 : 243;
  3635 : 26;
  3636 : 8;
  3637 : 21;
  3638 : 222;
  3639 : 31;
  3640 : 198;
  3641 : 0;
  3642 : 4;
  3643 : 9;
  3644 : 4;
  3645 : 0;
  3646 : 247;
  3647 : 247;
  3648 : 242;
  3649 : 0;
  3650 : 248;
  3651 : 252;
  3652 : 16;
  3653 : 5;
  3654 : 245;
  3655 : 12;
  3656 : 5;
  3657 : 5;
  3658 : 213;
  3659 : 252;
  3660 : 21;
  3661 : 5;
  3662 : 254;
  3663 : 252;
  3664 : 0;
  3665 : 14;
  3666 : 0;
  3667 : 240;
  3668 : 12;
  3669 : 249;
  3670 : 10;
  3671 : 230;
  3672 : 19;
  3673 : 244;
  3674 : 0;
  3675 : 2;
  3676 : 255;
  3677 : 244;
  3678 : 253;
  3679 : 251;
  3680 : 240;
  3681 : 0;
  3682 : 0;
  3683 : 3;
  3684 : 14;
  3685 : 7;
  3686 : 4;
  3687 : 5;
  3688 : 23;
  3689 : 0;
  3690 : 6;
  3691 : 0;
  3692 : 248;
  3693 : 6;
  3694 : 0;
  3695 : 239;
  3696 : 248;
  3697 : 226;
  3698 : 232;
  3699 : 250;
  3700 : 0;
  3701 : 13;
  3702 : 238;
  3703 : 253;
  3704 : 254;
  3705 : 0;
  3706 : 246;
  3707 : 4;
  3708 : 14;
  3709 : 0;
  3710 : 246;
  3711 : 246;
  3712 : 49;
  3713 : 0;
  3714 : 250;
  3715 : 245;
  3716 : 6;
  3717 : 7;
  3718 : 242;
  3719 : 244;
  3720 : 6;
  3721 : 253;
  3722 : 225;
  3723 : 255;
  3724 : 223;
  3725 : 249;
  3726 : 251;
  3727 : 254;
  3728 : 0;
  3729 : 251;
  3730 : 8;
  3731 : 6;
  3732 : 240;
  3733 : 26;
  3734 : 249;
  3735 : 254;
  3736 : 251;
  3737 : 244;
  3738 : 0;
  3739 : 27;
  3740 : 21;
  3741 : 0;
  3742 : 244;
  3743 : 9;
  3744 : 236;
  3745 : 0;
  3746 : 0;
  3747 : 231;
  3748 : 4;
  3749 : 230;
  3750 : 20;
  3751 : 8;
  3752 : 244;
  3753 : 0;
  3754 : 26;
  3755 : 0;
  3756 : 237;
  3757 : 10;
  3758 : 0;
  3759 : 0;
  3760 : 0;
  3761 : 24;
  3762 : 239;
  3763 : 24;
  3764 : 0;
  3765 : 247;
  3766 : 8;
  3767 : 19;
  3768 : 14;
  3769 : 0;
  3770 : 27;
  3771 : 43;
  3772 : 249;
  3773 : 0;
  3774 : 248;
  3775 : 20;
  3776 : 7;
  3777 : 0;
  3778 : 17;
  3779 : 237;
  3780 : 1;
  3781 : 38;
  3782 : 241;
  3783 : 2;
  3784 : 240;
  3785 : 223;
  3786 : 217;
  3787 : 12;
  3788 : 251;
  3789 : 31;
  3790 : 12;
  3791 : 33;
  3792 : 0;
  3793 : 253;
  3794 : 0;
  3795 : 224;
  3796 : 5;
  3797 : 31;
  3798 : 225;
  3799 : 242;
  3800 : 3;
  3801 : 0;
  3802 : 0;
  3803 : 13;
  3804 : 29;
  3805 : 242;
  3806 : 5;
  3807 : 255;
  3808 : 242;
  3809 : 0;
  3810 : 0;
  3811 : 21;
  3812 : 1;
  3813 : 238;
  3814 : 1;
  3815 : 3;
  3816 : 245;
  3817 : 0;
  3818 : 17;
  3819 : 0;
  3820 : 8;
  3821 : 0;
  3822 : 0;
  3823 : 232;
  3824 : 245;
  3825 : 223;
  3826 : 216;
  3827 : 7;
  3828 : 0;
  3829 : 9;
  3830 : 21;
  3831 : 9;
  3832 : 19;
  3833 : 0;
  3834 : 11;
  3835 : 20;
  3836 : 245;
  3837 : 247;
  3838 : 0;
  3839 : 247;
  3840 : 19;
  3841 : 0;
  3842 : 245;
  3843 : 2;
  3844 : 5;
  3845 : 232;
  3846 : 10;
  3847 : 0;
  3848 : 0;
  3849 : 24;
  3850 : 246;
  3851 : 10;
  3852 : 251;
  3853 : 0;
  3854 : 238;
  3855 : 246;
  3856 : 0;
  3857 : 255;
  3858 : 0;
  3859 : 2;
  3860 : 249;
  3861 : 10;
  3862 : 250;
  3863 : 255;
  3864 : 9;
  3865 : 4;
  3866 : 246;
  3867 : 21;
  3868 : 7;
  3869 : 0;
  3870 : 248;
  3871 : 248;
  3872 : 254;
  3873 : 0;
  3874 : 247;
  3875 : 236;
  3876 : 8;
  3877 : 247;
  3878 : 250;
  3879 : 253;
  3880 : 255;
  3881 : 0;
  3882 : 21;
  3883 : 0;
  3884 : 7;
  3885 : 243;
  3886 : 0;
  3887 : 0;
  3888 : 0;
  3889 : 10;
  3890 : 16;
  3891 : 248;
  3892 : 0;
  3893 : 3;
  3894 : 0;
  3895 : 248;
  3896 : 6;
  3897 : 0;
  3898 : 11;
  3899 : 2;
  3900 : 4;
  3901 : 0;
  3902 : 0;
  3903 : 5;
  3904 : 254;
  3905 : 0;
  3906 : 240;
  3907 : 15;
  3908 : 1;
  3909 : 10;
  3910 : 9;
  3911 : 17;
  3912 : 11;
  3913 : 255;
  3914 : 238;
  3915 : 10;
  3916 : 235;
  3917 : 0;
  3918 : 255;
  3919 : 6;
  3920 : 0;
  3921 : 4;
  3922 : 0;
  3923 : 232;
  3924 : 17;
  3925 : 255;
  3926 : 6;
  3927 : 0;
  3928 : 6;
  3929 : 3;
  3930 : 8;
  3931 : 251;
  3932 : 252;
  3933 : 0;
  3934 : 251;
  3935 : 1;
  3936 : 247;
  3937 : 0;
  3938 : 0;
  3939 : 253;
  3940 : 250;
  3941 : 246;
  3942 : 10;
  3943 : 10;
  3944 : 0;
  3945 : 0;
  3946 : 17;
  3947 : 0;
  3948 : 11;
  3949 : 253;
  3950 : 0;
  3951 : 0;
  3952 : 0;
  3953 : 5;
  3954 : 3;
  3955 : 15;
  3956 : 0;
  3957 : 251;
  3958 : 251;
  3959 : 13;
  3960 : 5;
  3961 : 0;
  3962 : 7;
  3963 : 1;
  3964 : 240;
  3965 : 0;
  3966 : 245;
  3967 : 9;
  3968 : 231;
  3969 : 0;
  3970 : 244;
  3971 : 8;
  3972 : 242;
  3973 : 255;
  3974 : 225;
  3975 : 20;
  3976 : 228;
  3977 : 240;
  3978 : 203;
  3979 : 11;
  3980 : 7;
  3981 : 8;
  3982 : 12;
  3983 : 12;
  3984 : 0;
  3985 : 6;
  3986 : 0;
  3987 : 238;
  3988 : 14;
  3989 : 3;
  3990 : 8;
  3991 : 211;
  3992 : 14;
  3993 : 217;
  3994 : 0;
  3995 : 0;
  3996 : 254;
  3997 : 0;
  3998 : 253;
  3999 : 21;
  4000 : 243;
  4001 : 0;
  4002 : 0;
  4003 : 11;
  4004 : 10;
  4005 : 246;
  4006 : 227;
  4007 : 255;
  4008 : 6;
  4009 : 0;
  4010 : 255;
  4011 : 0;
  4012 : 7;
  4013 : 234;
  4014 : 0;
  4015 : 222;
  4016 : 0;
  4017 : 241;
  4018 : 242;
  4019 : 245;
  4020 : 0;
  4021 : 248;
  4022 : 32;
  4023 : 8;
  4024 : 35;
  4025 : 244;
  4026 : 11;
  4027 : 7;
  4028 : 1;
  4029 : 0;
  4030 : 0;
  4031 : 28;
  4032 : 21;
  4033 : 0;
  4034 : 248;
  4035 : 32;
  4036 : 16;
  4037 : 0;
  4038 : 16;
  4039 : 242;
  4040 : 7;
  4041 : 23;
  4042 : 224;
  4043 : 6;
  4044 : 253;
  4045 : 251;
  4046 : 236;
  4047 : 7;
  4048 : 0;
  4049 : 251;
  4050 : 0;
  4051 : 9;
  4052 : 13;
  4053 : 244;
  4054 : 10;
  4055 : 245;
  4056 : 3;
  4057 : 245;
  4058 : 0;
  4059 : 21;
  4060 : 250;
  4061 : 0;
  4062 : 255;
  4063 : 247;
  4064 : 15;
  4065 : 0;
  4066 : 0;
  4067 : 236;
  4068 : 1;
  4069 : 18;
  4070 : 8;
  4071 : 11;
  4072 : 11;
  4073 : 0;
  4074 : 11;
  4075 : 0;
  4076 : 227;
  4077 : 242;
  4078 : 0;
  4079 : 241;
  4080 : 0;
  4081 : 6;
  4082 : 20;
  4083 : 2;
  4084 : 8;
  4085 : 247;
  4086 : 235;
  4087 : 13;
  4088 : 242;
  4089 : 0;
  4090 : 254;
  4091 : 235;
  4092 : 16;
  4093 : 248;
  4094 : 0;
  4095 : 7;
  4096 : 241;
  4097 : 0;
  4098 : 212;
  4099 : 27;
  4100 : 3;
  4101 : 254;
  4102 : 245;
  4103 : 15;
  4104 : 31;
  4105 : 65;
  4106 : 251;
  4107 : 243;
  4108 : 1;
  4109 : 221;
  4110 : 239;
  4111 : 2;
  4112 : 0;
  4113 : 245;
  4114 : 0;
  4115 : 224;
  4116 : 240;
  4117 : 231;
  4118 : 11;
  4119 : 216;
  4120 : 46;
  4121 : 12;
  4122 : 0;
  4123 : 17;
  4124 : 242;
  4125 : 0;
  4126 : 11;
  4127 : 231;
  4128 : 0;
  4129 : 0;
  4130 : 0;
  4131 : 224;
  4132 : 18;
  4133 : 19;
  4134 : 20;
  4135 : 216;
  4136 : 36;
  4137 : 0;
  4138 : 246;
  4139 : 246;
  4140 : 220;
  4141 : 9;
  4142 : 0;
  4143 : 249;
  4144 : 0;
  4145 : 252;
  4146 : 10;
  4147 : 15;
  4148 : 0;
  4149 : 250;
  4150 : 236;
  4151 : 226;
  4152 : 227;
  4153 : 247;
  4154 : 253;
  4155 : 12;
  4156 : 28;
  4157 : 0;
  4158 : 10;
  4159 : 12;
  4160 : 17;
  4161 : 246;
  4162 : 8;
  4163 : 253;
  4164 : 249;
  4165 : 248;
  4166 : 229;
  4167 : 14;
  4168 : 19;
  4169 : 2;
  4170 : 214;
  4171 : 228;
  4172 : 7;
  4173 : 244;
  4174 : 21;
  4175 : 40;
  4176 : 0;
  4177 : 243;
  4178 : 0;
  4179 : 255;
  4180 : 0;
  4181 : 37;
  4182 : 17;
  4183 : 232;
  4184 : 2;
  4185 : 236;
  4186 : 0;
  4187 : 26;
  4188 : 28;
  4189 : 0;
  4190 : 201;
  4191 : 36;
  4192 : 250;
  4193 : 0;
  4194 : 0;
  4195 : 1;
  4196 : 254;
  4197 : 240;
  4198 : 250;
  4199 : 243;
  4200 : 14;
  4201 : 0;
  4202 : 14;
  4203 : 0;
  4204 : 230;
  4205 : 251;
  4206 : 0;
  4207 : 1;
  4208 : 248;
  4209 : 14;
  4210 : 255;
  4211 : 251;
  4212 : 0;
  4213 : 251;
  4214 : 8;
  4215 : 11;
  4216 : 10;
  4217 : 0;
  4218 : 20;
  4219 : 26;
  4220 : 13;
  4221 : 0;
  4222 : 0;
  4223 : 234;
  4224 : 2;
  4225 : 248;
  4226 : 32;
  4227 : 235;
  4228 : 34;
  4229 : 224;
  4230 : 249;
  4231 : 222;
  4232 : 248;
  4233 : 246;
  4234 : 12;
  4235 : 34;
  4236 : 223;
  4237 : 229;
  4238 : 254;
  4239 : 229;
  4240 : 0;
  4241 : 31;
  4242 : 0;
  4243 : 23;
  4244 : 243;
  4245 : 237;
  4246 : 8;
  4247 : 36;
  4248 : 236;
  4249 : 215;
  4250 : 0;
  4251 : 250;
  4252 : 6;
  4253 : 243;
  4254 : 11;
  4255 : 37;
  4256 : 247;
  4257 : 0;
  4258 : 0;
  4259 : 8;
  4260 : 228;
  4261 : 254;
  4262 : 238;
  4263 : 17;
  4264 : 10;
  4265 : 0;
  4266 : 1;
  4267 : 0;
  4268 : 250;
  4269 : 248;
  4270 : 0;
  4271 : 5;
  4272 : 0;
  4273 : 241;
  4274 : 0;
  4275 : 8;
  4276 : 0;
  4277 : 245;
  4278 : 245;
  4279 : 18;
  4280 : 18;
  4281 : 0;
  4282 : 5;
  4283 : 255;
  4284 : 251;
  4285 : 0;
  4286 : 0;
  4287 : 244;
  4288 : 227;
  4289 : 0;
  4290 : 242;
  4291 : 20;
  4292 : 11;
  4293 : 27;
  4294 : 238;
  4295 : 41;
  4296 : 36;
  4297 : 13;
  4298 : 238;
  4299 : 234;
  4300 : 53;
  4301 : 12;
  4302 : 231;
  4303 : 37;
  4304 : 0;
  4305 : 224;
  4306 : 0;
  4307 : 15;
  4308 : 40;
  4309 : 236;
  4310 : 3;
  4311 : 222;
  4312 : 7;
  4313 : 249;
  4314 : 246;
  4315 : 225;
  4316 : 33;
  4317 : 0;
  4318 : 5;
  4319 : 248;
  4320 : 18;
  4321 : 0;
  4322 : 245;
  4323 : 255;
  4324 : 249;
  4325 : 27;
  4326 : 17;
  4327 : 234;
  4328 : 36;
  4329 : 0;
  4330 : 4;
  4331 : 0;
  4332 : 241;
  4333 : 247;
  4334 : 8;
  4335 : 27;
  4336 : 0;
  4337 : 241;
  4338 : 252;
  4339 : 12;
  4340 : 0;
  4341 : 7;
  4342 : 219;
  4343 : 248;
  4344 : 230;
  4345 : 0;
  4346 : 225;
  4347 : 254;
  4348 : 13;
  4349 : 0;
  4350 : 246;
  4351 : 8;
  4352 : 8;
  4353 : 0;
  4354 : 0;
  4355 : 229;
  4356 : 19;
  4357 : 19;
  4358 : 255;
  4359 : 22;
  4360 : 242;
  4361 : 17;
  4362 : 207;
  4363 : 41;
  4364 : 226;
  4365 : 12;
  4366 : 41;
  4367 : 235;
  4368 : 0;
  4369 : 47;
  4370 : 0;
  4371 : 255;
  4372 : 31;
  4373 : 207;
  4374 : 197;
  4375 : 236;
  4376 : 24;
  4377 : 251;
  4378 : 0;
  4379 : 220;
  4380 : 250;
  4381 : 246;
  4382 : 247;
  4383 : 0;
  4384 : 199;
  4385 : 0;
  4386 : 0;
  4387 : 239;
  4388 : 251;
  4389 : 12;
  4390 : 14;
  4391 : 0;
  4392 : 251;
  4393 : 247;
  4394 : 26;
  4395 : 0;
  4396 : 253;
  4397 : 13;
  4398 : 0;
  4399 : 241;
  4400 : 9;
  4401 : 227;
  4402 : 185;
  4403 : 21;
  4404 : 0;
  4405 : 21;
  4406 : 220;
  4407 : 45;
  4408 : 40;
  4409 : 0;
  4410 : 13;
  4411 : 60;
  4412 : 251;
  4413 : 0;
  4414 : 0;
  4415 : 253;
  4416 : 249;
  4417 : 0;
  4418 : 224;
  4419 : 254;
  4420 : 253;
  4421 : 12;
  4422 : 0;
  4423 : 1;
  4424 : 29;
  4425 : 17;
  4426 : 241;
  4427 : 207;
  4428 : 27;
  4429 : 2;
  4430 : 250;
  4431 : 32;
  4432 : 247;
  4433 : 2;
  4434 : 0;
  4435 : 250;
  4436 : 218;
  4437 : 224;
  4438 : 243;
  4439 : 216;
  4440 : 3;
  4441 : 225;
  4442 : 245;
  4443 : 239;
  4444 : 244;
  4445 : 248;
  4446 : 247;
  4447 : 255;
  4448 : 249;
  4449 : 0;
  4450 : 0;
  4451 : 252;
  4452 : 239;
  4453 : 42;
  4454 : 236;
  4455 : 13;
  4456 : 46;
  4457 : 0;
  4458 : 226;
  4459 : 0;
  4460 : 254;
  4461 : 251;
  4462 : 0;
  4463 : 238;
  4464 : 248;
  4465 : 48;
  4466 : 227;
  4467 : 27;
  4468 : 0;
  4469 : 5;
  4470 : 7;
  4471 : 252;
  4472 : 255;
  4473 : 0;
  4474 : 237;
  4475 : 254;
  4476 : 41;
  4477 : 0;
  4478 : 0;
  4479 : 254;
  4480 : 255;
  4481 : 0;
  4482 : 34;
  4483 : 252;
  4484 : 51;
  4485 : 248;
  4486 : 244;
  4487 : 249;
  4488 : 245;
  4489 : 238;
  4490 : 224;
  4491 : 5;
  4492 : 240;
  4493 : 9;
  4494 : 21;
  4495 : 4;
  4496 : 0;
  4497 : 14;
  4498 : 0;
  4499 : 12;
  4500 : 15;
  4501 : 235;
  4502 : 7;
  4503 : 214;
  4504 : 19;
  4505 : 235;
  4506 : 243;
  4507 : 16;
  4508 : 43;
  4509 : 0;
  4510 : 21;
  4511 : 20;
  4512 : 219;
  4513 : 245;
  4514 : 247;
  4515 : 244;
  4516 : 250;
  4517 : 242;
  4518 : 16;
  4519 : 14;
  4520 : 247;
  4521 : 0;
  4522 : 3;
  4523 : 0;
  4524 : 253;
  4525 : 7;
  4526 : 0;
  4527 : 229;
  4528 : 248;
  4529 : 223;
  4530 : 210;
  4531 : 16;
  4532 : 0;
  4533 : 232;
  4534 : 224;
  4535 : 53;
  4536 : 33;
  4537 : 0;
  4538 : 15;
  4539 : 29;
  4540 : 246;
  4541 : 247;
  4542 : 0;
  4543 : 8;
  4544 : 254;
  4545 : 0;
  4546 : 234;
  4547 : 230;
  4548 : 253;
  4549 : 3;
  4550 : 224;
  4551 : 7;
  4552 : 4;
  4553 : 19;
  4554 : 213;
  4555 : 240;
  4556 : 7;
  4557 : 255;
  4558 : 250;
  4559 : 28;
  4560 : 0;
  4561 : 217;
  4562 : 0;
  4563 : 252;
  4564 : 245;
  4565 : 1;
  4566 : 252;
  4567 : 242;
  4568 : 10;
  4569 : 231;
  4570 : 0;
  4571 : 6;
  4572 : 227;
  4573 : 0;
  4574 : 14;
  4575 : 236;
  4576 : 5;
  4577 : 0;
  4578 : 247;
  4579 : 6;
  4580 : 4;
  4581 : 14;
  4582 : 226;
  4583 : 4;
  4584 : 7;
  4585 : 247;
  4586 : 248;
  4587 : 248;
  4588 : 5;
  4589 : 230;
  4590 : 0;
  4591 : 212;
  4592 : 0;
  4593 : 242;
  4594 : 252;
  4595 : 255;
  4596 : 0;
  4597 : 19;
  4598 : 2;
  4599 : 243;
  4600 : 236;
  4601 : 0;
  4602 : 252;
  4603 : 235;
  4604 : 18;
  4605 : 0;
  4606 : 0;
  4607 : 9;
  4608 : 224;
  4609 : 0;
  4610 : 254;
  4611 : 248;
  4612 : 18;
  4613 : 238;
  4614 : 249;
  4615 : 1;
  4616 : 0;
  4617 : 2;
  4618 : 247;
  4619 : 241;
  4620 : 232;
  4621 : 239;
  4622 : 6;
  4623 : 19;
  4624 : 0;
  4625 : 22;
  4626 : 0;
  4627 : 180;
  4628 : 228;
  4629 : 207;
  4630 : 233;
  4631 : 235;
  4632 : 252;
  4633 : 228;
  4634 : 0;
  4635 : 232;
  4636 : 241;
  4637 : 0;
  4638 : 1;
  4639 : 250;
  4640 : 239;
  4641 : 0;
  4642 : 0;
  4643 : 254;
  4644 : 235;
  4645 : 36;
  4646 : 243;
  4647 : 11;
  4648 : 30;
  4649 : 0;
  4650 : 216;
  4651 : 246;
  4652 : 251;
  4653 : 7;
  4654 : 246;
  4655 : 32;
  4656 : 0;
  4657 : 37;
  4658 : 239;
  4659 : 20;
  4660 : 0;
  4661 : 254;
  4662 : 9;
  4663 : 1;
  4664 : 36;
  4665 : 0;
  4666 : 11;
  4667 : 246;
  4668 : 57;
  4669 : 246;
  4670 : 0;
  4671 : 219;
  4672 : 241;
  4673 : 0;
  4674 : 18;
  4675 : 244;
  4676 : 11;
  4677 : 6;
  4678 : 218;
  4679 : 1;
  4680 : 6;
  4681 : 237;
  4682 : 3;
  4683 : 34;
  4684 : 255;
  4685 : 22;
  4686 : 16;
  4687 : 39;
  4688 : 0;
  4689 : 21;
  4690 : 7;
  4691 : 254;
  4692 : 34;
  4693 : 241;
  4694 : 255;
  4695 : 10;
  4696 : 13;
  4697 : 254;
  4698 : 0;
  4699 : 249;
  4700 : 8;
  4701 : 0;
  4702 : 246;
  4703 : 21;
  4704 : 224;
  4705 : 0;
  4706 : 0;
  4707 : 4;
  4708 : 230;
  4709 : 247;
  4710 : 30;
  4711 : 27;
  4712 : 2;
  4713 : 0;
  4714 : 4;
  4715 : 8;
  4716 : 34;
  4717 : 12;
  4718 : 0;
  4719 : 8;
  4720 : 0;
  4721 : 228;
  4722 : 212;
  4723 : 24;
  4724 : 0;
  4725 : 235;
  4726 : 240;
  4727 : 40;
  4728 : 33;
  4729 : 248;
  4730 : 39;
  4731 : 24;
  4732 : 242;
  4733 : 0;
  4734 : 0;
  4735 : 10;
  4736 : 228;
  4737 : 247;
  4738 : 221;
  4739 : 27;
  4740 : 220;
  4741 : 30;
  4742 : 3;
  4743 : 18;
  4744 : 37;
  4745 : 59;
  4746 : 7;
  4747 : 0;
  4748 : 7;
  4749 : 228;
  4750 : 241;
  4751 : 3;
  4752 : 0;
  4753 : 232;
  4754 : 0;
  4755 : 252;
  4756 : 4;
  4757 : 252;
  4758 : 1;
  4759 : 203;
  4760 : 1;
  4761 : 9;
  4762 : 0;
  4763 : 21;
  4764 : 0;
  4765 : 0;
  4766 : 28;
  4767 : 12;
  4768 : 242;
  4769 : 0;
  4770 : 0;
  4771 : 234;
  4772 : 250;
  4773 : 32;
  4774 : 19;
  4775 : 224;
  4776 : 250;
  4777 : 244;
  4778 : 250;
  4779 : 0;
  4780 : 208;
  4781 : 29;
  4782 : 0;
  4783 : 10;
  4784 : 0;
  4785 : 235;
  4786 : 5;
  4787 : 37;
  4788 : 0;
  4789 : 242;
  4790 : 250;
  4791 : 2;
  4792 : 211;
  4793 : 247;
  4794 : 254;
  4795 : 10;
  4796 : 25;
  4797 : 0;
  4798 : 0;
  4799 : 11;
  4800 : 239;
  4801 : 0;
  4802 : 12;
  4803 : 241;
  4804 : 28;
  4805 : 245;
  4806 : 241;
  4807 : 1;
  4808 : 251;
  4809 : 236;
  4810 : 240;
  4811 : 0;
  4812 : 217;
  4813 : 6;
  4814 : 24;
  4815 : 2;
  4816 : 248;
  4817 : 43;
  4818 : 0;
  4819 : 250;
  4820 : 241;
  4821 : 237;
  4822 : 252;
  4823 : 3;
  4824 : 12;
  4825 : 5;
  4826 : 246;
  4827 : 3;
  4828 : 9;
  4829 : 0;
  4830 : 21;
  4831 : 250;
  4832 : 224;
  4833 : 0;
  4834 : 8;
  4835 : 11;
  4836 : 245;
  4837 : 8;
  4838 : 14;
  4839 : 252;
  4840 : 254;
  4841 : 248;
  4842 : 227;
  4843 : 0;
  4844 : 255;
  4845 : 19;
  4846 : 0;
  4847 : 7;
  4848 : 0;
  4849 : 0;
  4850 : 228;
  4851 : 255;
  4852 : 0;
  4853 : 0;
  4854 : 24;
  4855 : 22;
  4856 : 25;
  4857 : 0;
  4858 : 8;
  4859 : 39;
  4860 : 13;
  4861 : 247;
  4862 : 10;
  4863 : 226;
  4864 : 233;
  4865 : 0;
  4866 : 20;
  4867 : 253;
  4868 : 25;
  4869 : 0;
  4870 : 239;
  4871 : 234;
  4872 : 243;
  4873 : 250;
  4874 : 14;
  4875 : 250;
  4876 : 225;
  4877 : 254;
  4878 : 4;
  4879 : 4;
  4880 : 0;
  4881 : 13;
  4882 : 0;
  4883 : 207;
  4884 : 234;
  4885 : 223;
  4886 : 251;
  4887 : 247;
  4888 : 237;
  4889 : 225;
  4890 : 0;
  4891 : 10;
  4892 : 252;
  4893 : 0;
  4894 : 9;
  4895 : 252;
  4896 : 220;
  4897 : 248;
  4898 : 0;
  4899 : 255;
  4900 : 9;
  4901 : 21;
  4902 : 244;
  4903 : 10;
  4904 : 3;
  4905 : 0;
  4906 : 207;
  4907 : 0;
  4908 : 236;
  4909 : 14;
  4910 : 0;
  4911 : 14;
  4912 : 0;
  4913 : 7;
  4914 : 3;
  4915 : 2;
  4916 : 0;
  4917 : 245;
  4918 : 33;
  4919 : 3;
  4920 : 22;
  4921 : 8;
  4922 : 19;
  4923 : 25;
  4924 : 40;
  4925 : 249;
  4926 : 0;
  4927 : 211;
  4928 : 232;
  4929 : 0;
  4930 : 244;
  4931 : 30;
  4932 : 24;
  4933 : 9;
  4934 : 234;
  4935 : 30;
  4936 : 24;
  4937 : 5;
  4938 : 246;
  4939 : 29;
  4940 : 231;
  4941 : 2;
  4942 : 9;
  4943 : 22;
  4944 : 0;
  4945 : 22;
  4946 : 0;
  4947 : 0;
  4948 : 247;
  4949 : 191;
  4950 : 17;
  4951 : 227;
  4952 : 36;
  4953 : 15;
  4954 : 0;
  4955 : 246;
  4956 : 5;
  4957 : 0;
  4958 : 231;
  4959 : 3;
  4960 : 235;
  4961 : 0;
  4962 : 0;
  4963 : 204;
  4964 : 242;
  4965 : 11;
  4966 : 35;
  4967 : 19;
  4968 : 2;
  4969 : 8;
  4970 : 240;
  4971 : 0;
  4972 : 20;
  4973 : 3;
  4974 : 0;
  4975 : 250;
  4976 : 0;
  4977 : 248;
  4978 : 186;
  4979 : 62;
  4980 : 248;
  4981 : 209;
  4982 : 210;
  4983 : 47;
  4984 : 15;
  4985 : 0;
  4986 : 19;
  4987 : 250;
  4988 : 36;
  4989 : 8;
  4990 : 9;
  4991 : 239;
  4992 : 235;
  4993 : 0;
  4994 : 0;
  4995 : 24;
  4996 : 26;
  4997 : 14;
  4998 : 37;
  4999 : 249;
  5000 : 8;
  5001 : 39;
  5002 : 9;
  5003 : 30;
  5004 : 232;
  5005 : 245;
  5006 : 222;
  5007 : 245;
  5008 : 0;
  5009 : 253;
  5010 : 247;
  5011 : 251;
  5012 : 20;
  5013 : 1;
  5014 : 252;
  5015 : 204;
  5016 : 12;
  5017 : 42;
  5018 : 0;
  5019 : 50;
  5020 : 3;
  5021 : 0;
  5022 : 253;
  5023 : 238;
  5024 : 9;
  5025 : 0;
  5026 : 0;
  5027 : 194;
  5028 : 26;
  5029 : 241;
  5030 : 55;
  5031 : 2;
  5032 : 250;
  5033 : 0;
  5034 : 16;
  5035 : 0;
  5036 : 225;
  5037 : 13;
  5038 : 0;
  5039 : 236;
  5040 : 0;
  5041 : 14;
  5042 : 17;
  5043 : 51;
  5044 : 0;
  5045 : 241;
  5046 : 230;
  5047 : 253;
  5048 : 227;
  5049 : 0;
  5050 : 11;
  5051 : 29;
  5052 : 21;
  5053 : 246;
  5054 : 0;
  5055 : 14;
  5056 : 13;
  5057 : 0;
  5058 : 19;
  5059 : 230;
  5060 : 208;
  5061 : 7;
  5062 : 2;
  5063 : 24;
  5064 : 238;
  5065 : 72;
  5066 : 19;
  5067 : 26;
  5068 : 3;
  5069 : 21;
  5070 : 240;
  5071 : 235;
  5072 : 0;
  5073 : 242;
  5074 : 0;
  5075 : 3;
  5076 : 16;
  5077 : 4;
  5078 : 241;
  5079 : 231;
  5080 : 44;
  5081 : 37;
  5082 : 243;
  5083 : 32;
  5084 : 243;
  5085 : 0;
  5086 : 21;
  5087 : 236;
  5088 : 215;
  5089 : 0;
  5090 : 0;
  5091 : 223;
  5092 : 26;
  5093 : 11;
  5094 : 34;
  5095 : 242;
  5096 : 28;
  5097 : 0;
  5098 : 12;
  5099 : 0;
  5100 : 250;
  5101 : 43;
  5102 : 0;
  5103 : 57;
  5104 : 248;
  5105 : 237;
  5106 : 239;
  5107 : 247;
  5108 : 0;
  5109 : 28;
  5110 : 253;
  5111 : 250;
  5112 : 7;
  5113 : 0;
  5114 : 9;
  5115 : 57;
  5116 : 234;
  5117 : 0;
  5118 : 0;
  5119 : 19;
  5120 : 31;
  5121 : 0;
  5122 : 15;
  5123 : 1;
  5124 : 247;
  5125 : 16;
  5126 : 251;
  5127 : 253;
  5128 : 37;
  5129 : 250;
  5130 : 4;
  5131 : 233;
  5132 : 24;
  5133 : 216;
  5134 : 4;
  5135 : 30;
  5136 : 0;
  5137 : 244;
  5138 : 0;
  5139 : 234;
  5140 : 249;
  5141 : 10;
  5142 : 233;
  5143 : 14;
  5144 : 5;
  5145 : 205;
  5146 : 0;
  5147 : 247;
  5148 : 19;
  5149 : 0;
  5150 : 243;
  5151 : 21;
  5152 : 19;
  5153 : 0;
  5154 : 0;
  5155 : 1;
  5156 : 228;
  5157 : 2;
  5158 : 252;
  5159 : 6;
  5160 : 10;
  5161 : 0;
  5162 : 253;
  5163 : 0;
  5164 : 1;
  5165 : 10;
  5166 : 0;
  5167 : 26;
  5168 : 0;
  5169 : 215;
  5170 : 3;
  5171 : 20;
  5172 : 0;
  5173 : 3;
  5174 : 13;
  5175 : 5;
  5176 : 250;
  5177 : 0;
  5178 : 26;
  5179 : 252;
  5180 : 252;
  5181 : 0;
  5182 : 0;
  5183 : 6;
  5184 : 207;
  5185 : 0;
  5186 : 40;
  5187 : 7;
  5188 : 244;
  5189 : 4;
  5190 : 227;
  5191 : 251;
  5192 : 22;
  5193 : 240;
  5194 : 22;
  5195 : 253;
  5196 : 13;
  5197 : 232;
  5198 : 20;
  5199 : 35;
  5200 : 0;
  5201 : 22;
  5202 : 0;
  5203 : 220;
  5204 : 235;
  5205 : 223;
  5206 : 253;
  5207 : 55;
  5208 : 231;
  5209 : 5;
  5210 : 0;
  5211 : 219;
  5212 : 234;
  5213 : 0;
  5214 : 247;
  5215 : 0;
  5216 : 27;
  5217 : 0;
  5218 : 0;
  5219 : 11;
  5220 : 196;
  5221 : 34;
  5222 : 245;
  5223 : 247;
  5224 : 49;
  5225 : 0;
  5226 : 204;
  5227 : 0;
  5228 : 219;
  5229 : 241;
  5230 : 0;
  5231 : 36;
  5232 : 9;
  5233 : 9;
  5234 : 240;
  5235 : 21;
  5236 : 0;
  5237 : 15;
  5238 : 40;
  5239 : 1;
  5240 : 35;
  5241 : 247;
  5242 : 6;
  5243 : 8;
  5244 : 31;
  5245 : 248;
  5246 : 0;
  5247 : 239;
  5248 : 5;
  5249 : 0;
  5250 : 255;
  5251 : 234;
  5252 : 247;
  5253 : 23;
  5254 : 238;
  5255 : 9;
  5256 : 10;
  5257 : 5;
  5258 : 242;
  5259 : 9;
  5260 : 236;
  5261 : 0;
  5262 : 3;
  5263 : 6;
  5264 : 0;
  5265 : 14;
  5266 : 0;
  5267 : 228;
  5268 : 1;
  5269 : 250;
  5270 : 253;
  5271 : 223;
  5272 : 22;
  5273 : 251;
  5274 : 0;
  5275 : 15;
  5276 : 229;
  5277 : 0;
  5278 : 3;
  5279 : 247;
  5280 : 245;
  5281 : 0;
  5282 : 0;
  5283 : 0;
  5284 : 6;
  5285 : 254;
  5286 : 4;
  5287 : 245;
  5288 : 2;
  5289 : 0;
  5290 : 10;
  5291 : 0;
  5292 : 9;
  5293 : 8;
  5294 : 248;
  5295 : 7;
  5296 : 0;
  5297 : 0;
  5298 : 249;
  5299 : 7;
  5300 : 0;
  5301 : 31;
  5302 : 0;
  5303 : 7;
  5304 : 255;
  5305 : 0;
  5306 : 12;
  5307 : 18;
  5308 : 251;
  5309 : 0;
  5310 : 0;
  5311 : 6;
  5312 : 219;
  5313 : 0;
  5314 : 210;
  5315 : 15;
  5316 : 250;
  5317 : 217;
  5318 : 249;
  5319 : 33;
  5320 : 2;
  5321 : 18;
  5322 : 223;
  5323 : 241;
  5324 : 33;
  5325 : 247;
  5326 : 243;
  5327 : 12;
  5328 : 0;
  5329 : 16;
  5330 : 0;
  5331 : 16;
  5332 : 233;
  5333 : 239;
  5334 : 254;
  5335 : 239;
  5336 : 2;
  5337 : 225;
  5338 : 0;
  5339 : 235;
  5340 : 224;
  5341 : 0;
  5342 : 222;
  5343 : 31;
  5344 : 13;
  5345 : 246;
  5346 : 0;
  5347 : 246;
  5348 : 232;
  5349 : 38;
  5350 : 228;
  5351 : 24;
  5352 : 48;
  5353 : 0;
  5354 : 4;
  5355 : 0;
  5356 : 30;
  5357 : 230;
  5358 : 0;
  5359 : 16;
  5360 : 0;
  5361 : 17;
  5362 : 219;
  5363 : 13;
  5364 : 0;
  5365 : 255;
  5366 : 236;
  5367 : 1;
  5368 : 33;
  5369 : 0;
  5370 : 245;
  5371 : 239;
  5372 : 22;
  5373 : 0;
  5374 : 0;
  5375 : 47;
  5376 : 21;
  5377 : 0;
  5378 : 7;
  5379 : 38;
  5380 : 33;
  5381 : 10;
  5382 : 25;
  5383 : 250;
  5384 : 8;
  5385 : 25;
  5386 : 10;
  5387 : 3;
  5388 : 245;
  5389 : 244;
  5390 : 242;
  5391 : 3;
  5392 : 0;
  5393 : 242;
  5394 : 0;
  5395 : 12;
  5396 : 233;
  5397 : 11;
  5398 : 10;
  5399 : 246;
  5400 : 252;
  5401 : 40;
  5402 : 0;
  5403 : 19;
  5404 : 37;
  5405 : 0;
  5406 : 239;
  5407 : 228;
  5408 : 3;
  5409 : 0;
  5410 : 0;
  5411 : 238;
  5412 : 0;
  5413 : 229;
  5414 : 56;
  5415 : 13;
  5416 : 252;
  5417 : 0;
  5418 : 16;
  5419 : 0;
  5420 : 255;
  5421 : 238;
  5422 : 0;
  5423 : 190;
  5424 : 0;
  5425 : 16;
  5426 : 11;
  5427 : 16;
  5428 : 247;
  5429 : 233;
  5430 : 239;
  5431 : 231;
  5432 : 245;
  5433 : 243;
  5434 : 11;
  5435 : 251;
  5436 : 31;
  5437 : 0;
  5438 : 0;
  5439 : 27;
  5440 : 228;
  5441 : 247;
  5442 : 251;
  5443 : 7;
  5444 : 16;
  5445 : 12;
  5446 : 4;
  5447 : 229;
  5448 : 250;
  5449 : 26;
  5450 : 3;
  5451 : 4;
  5452 : 12;
  5453 : 25;
  5454 : 226;
  5455 : 246;
  5456 : 0;
  5457 : 6;
  5458 : 0;
  5459 : 244;
  5460 : 1;
  5461 : 232;
  5462 : 250;
  5463 : 238;
  5464 : 4;
  5465 : 248;
  5466 : 0;
  5467 : 34;
  5468 : 243;
  5469 : 0;
  5470 : 253;
  5471 : 247;
  5472 : 7;
  5473 : 248;
  5474 : 0;
  5475 : 224;
  5476 : 26;
  5477 : 20;
  5478 : 6;
  5479 : 14;
  5480 : 16;
  5481 : 0;
  5482 : 224;
  5483 : 0;
  5484 : 242;
  5485 : 236;
  5486 : 0;
  5487 : 236;
  5488 : 246;
  5489 : 2;
  5490 : 5;
  5491 : 20;
  5492 : 0;
  5493 : 237;
  5494 : 254;
  5495 : 224;
  5496 : 244;
  5497 : 0;
  5498 : 251;
  5499 : 245;
  5500 : 9;
  5501 : 0;
  5502 : 245;
  5503 : 255;
  5504 : 34;
  5505 : 0;
  5506 : 29;
  5507 : 246;
  5508 : 244;
  5509 : 245;
  5510 : 13;
  5511 : 21;
  5512 : 248;
  5513 : 17;
  5514 : 13;
  5515 : 30;
  5516 : 249;
  5517 : 255;
  5518 : 14;
  5519 : 10;
  5520 : 0;
  5521 : 238;
  5522 : 248;
  5523 : 25;
  5524 : 243;
  5525 : 20;
  5526 : 234;
  5527 : 40;
  5528 : 38;
  5529 : 17;
  5530 : 0;
  5531 : 20;
  5532 : 29;
  5533 : 247;
  5534 : 2;
  5535 : 11;
  5536 : 229;
  5537 : 8;
  5538 : 246;
  5539 : 254;
  5540 : 10;
  5541 : 235;
  5542 : 17;
  5543 : 2;
  5544 : 254;
  5545 : 0;
  5546 : 40;
  5547 : 0;
  5548 : 7;
  5549 : 241;
  5550 : 0;
  5551 : 12;
  5552 : 0;
  5553 : 9;
  5554 : 6;
  5555 : 234;
  5556 : 0;
  5557 : 250;
  5558 : 252;
  5559 : 252;
  5560 : 21;
  5561 : 0;
  5562 : 17;
  5563 : 17;
  5564 : 230;
  5565 : 0;
  5566 : 0;
  5567 : 4;
  5568 : 233;
  5569 : 0;
  5570 : 58;
  5571 : 245;
  5572 : 23;
  5573 : 3;
  5574 : 248;
  5575 : 228;
  5576 : 0;
  5577 : 241;
  5578 : 47;
  5579 : 28;
  5580 : 241;
  5581 : 233;
  5582 : 4;
  5583 : 2;
  5584 : 0;
  5585 : 36;
  5586 : 0;
  5587 : 250;
  5588 : 243;
  5589 : 237;
  5590 : 8;
  5591 : 72;
  5592 : 218;
  5593 : 252;
  5594 : 0;
  5595 : 213;
  5596 : 244;
  5597 : 0;
  5598 : 10;
  5599 : 31;
  5600 : 10;
  5601 : 0;
  5602 : 0;
  5603 : 19;
  5604 : 209;
  5605 : 4;
  5606 : 234;
  5607 : 8;
  5608 : 3;
  5609 : 247;
  5610 : 222;
  5611 : 246;
  5612 : 7;
  5613 : 253;
  5614 : 0;
  5615 : 25;
  5616 : 0;
  5617 : 11;
  5618 : 3;
  5619 : 20;
  5620 : 0;
  5621 : 241;
  5622 : 32;
  5623 : 2;
  5624 : 24;
  5625 : 248;
  5626 : 255;
  5627 : 10;
  5628 : 12;
  5629 : 8;
  5630 : 0;
  5631 : 213;
  5632 : 10;
  5633 : 0;
  5634 : 9;
  5635 : 11;
  5636 : 242;
  5637 : 252;
  5638 : 10;
  5639 : 14;
  5640 : 11;
  5641 : 8;
  5642 : 251;
  5643 : 1;
  5644 : 240;
  5645 : 252;
  5646 : 246;
  5647 : 222;
  5648 : 0;
  5649 : 26;
  5650 : 0;
  5651 : 250;
  5652 : 226;
  5653 : 13;
  5654 : 1;
  5655 : 247;
  5656 : 21;
  5657 : 251;
  5658 : 245;
  5659 : 38;
  5660 : 15;
  5661 : 0;
  5662 : 223;
  5663 : 251;
  5664 : 7;
  5665 : 0;
  5666 : 0;
  5667 : 218;
  5668 : 6;
  5669 : 241;
  5670 : 19;
  5671 : 10;
  5672 : 221;
  5673 : 247;
  5674 : 0;
  5675 : 0;
  5676 : 2;
  5677 : 11;
  5678 : 0;
  5679 : 37;
  5680 : 0;
  5681 : 22;
  5682 : 4;
  5683 : 16;
  5684 : 0;
  5685 : 10;
  5686 : 253;
  5687 : 7;
  5688 : 244;
  5689 : 0;
  5690 : 28;
  5691 : 23;
  5692 : 255;
  5693 : 248;
  5694 : 0;
  5695 : 3;
  5696 : 236;
  5697 : 0;
  5698 : 248;
  5699 : 219;
  5700 : 10;
  5701 : 250;
  5702 : 227;
  5703 : 29;
  5704 : 235;
  5705 : 243;
  5706 : 202;
  5707 : 29;
  5708 : 0;
  5709 : 254;
  5710 : 4;
  5711 : 241;
  5712 : 0;
  5713 : 35;
  5714 : 0;
  5715 : 236;
  5716 : 9;
  5717 : 241;
  5718 : 249;
  5719 : 236;
  5720 : 252;
  5721 : 250;
  5722 : 0;
  5723 : 227;
  5724 : 229;
  5725 : 0;
  5726 : 0;
  5727 : 11;
  5728 : 237;
  5729 : 0;
  5730 : 0;
  5731 : 253;
  5732 : 243;
  5733 : 250;
  5734 : 250;
  5735 : 248;
  5736 : 0;
  5737 : 0;
  5738 : 2;
  5739 : 247;
  5740 : 28;
  5741 : 250;
  5742 : 248;
  5743 : 20;
  5744 : 0;
  5745 : 7;
  5746 : 210;
  5747 : 2;
  5748 : 0;
  5749 : 27;
  5750 : 14;
  5751 : 12;
  5752 : 37;
  5753 : 0;
  5754 : 18;
  5755 : 255;
  5756 : 251;
  5757 : 0;
  5758 : 0;
  5759 : 236;
  5760 : 38;
  5761 : 0;
  5762 : 4;
  5763 : 248;
  5764 : 250;
  5765 : 254;
  5766 : 252;
  5767 : 238;
  5768 : 11;
  5769 : 249;
  5770 : 0;
  5771 : 253;
  5772 : 253;
  5773 : 212;
  5774 : 13;
  5775 : 21;
  5776 : 249;
  5777 : 254;
  5778 : 0;
  5779 : 246;
  5780 : 255;
  5781 : 13;
  5782 : 250;
  5783 : 241;
  5784 : 1;
  5785 : 220;
  5786 : 0;
  5787 : 250;
  5788 : 2;
  5789 : 0;
  5790 : 255;
  5791 : 14;
  5792 : 3;
  5793 : 247;
  5794 : 0;
  5795 : 25;
  5796 : 244;
  5797 : 247;
  5798 : 255;
  5799 : 1;
  5800 : 252;
  5801 : 0;
  5802 : 255;
  5803 : 0;
  5804 : 9;
  5805 : 251;
  5806 : 0;
  5807 : 10;
  5808 : 0;
  5809 : 231;
  5810 : 2;
  5811 : 252;
  5812 : 0;
  5813 : 8;
  5814 : 22;
  5815 : 26;
  5816 : 5;
  5817 : 248;
  5818 : 14;
  5819 : 255;
  5820 : 252;
  5821 : 246;
  5822 : 0;
  5823 : 253;
  5824 : 222;
  5825 : 9;
  5826 : 27;
  5827 : 228;
  5828 : 20;
  5829 : 16;
  5830 : 245;
  5831 : 239;
  5832 : 255;
  5833 : 30;
  5834 : 13;
  5835 : 7;
  5836 : 232;
  5837 : 229;
  5838 : 247;
  5839 : 239;
  5840 : 0;
  5841 : 9;
  5842 : 0;
  5843 : 244;
  5844 : 28;
  5845 : 248;
  5846 : 12;
  5847 : 249;
  5848 : 5;
  5849 : 227;
  5850 : 0;
  5851 : 14;
  5852 : 208;
  5853 : 0;
  5854 : 2;
  5855 : 20;
  5856 : 232;
  5857 : 8;
  5858 : 0;
  5859 : 250;
  5860 : 1;
  5861 : 17;
  5862 : 246;
  5863 : 246;
  5864 : 7;
  5865 : 0;
  5866 : 19;
  5867 : 0;
  5868 : 255;
  5869 : 15;
  5870 : 0;
  5871 : 1;
  5872 : 0;
  5873 : 249;
  5874 : 241;
  5875 : 244;
  5876 : 0;
  5877 : 251;
  5878 : 4;
  5879 : 249;
  5880 : 1;
  5881 : 8;
  5882 : 253;
  5883 : 21;
  5884 : 252;
  5885 : 0;
  5886 : 0;
  5887 : 214;
  5888 : 223;
  5889 : 0;
  5890 : 7;
  5891 : 239;
  5892 : 247;
  5893 : 15;
  5894 : 250;
  5895 : 9;
  5896 : 11;
  5897 : 6;
  5898 : 239;
  5899 : 1;
  5900 : 5;
  5901 : 252;
  5902 : 236;
  5903 : 8;
  5904 : 0;
  5905 : 248;
  5906 : 0;
  5907 : 254;
  5908 : 253;
  5909 : 22;
  5910 : 248;
  5911 : 254;
  5912 : 17;
  5913 : 5;
  5914 : 0;
  5915 : 5;
  5916 : 251;
  5917 : 0;
  5918 : 229;
  5919 : 6;
  5920 : 1;
  5921 : 0;
  5922 : 247;
  5923 : 236;
  5924 : 250;
  5925 : 252;
  5926 : 252;
  5927 : 44;
  5928 : 246;
  5929 : 0;
  5930 : 20;
  5931 : 0;
  5932 : 38;
  5933 : 240;
  5934 : 0;
  5935 : 33;
  5936 : 246;
  5937 : 19;
  5938 : 226;
  5939 : 12;
  5940 : 0;
  5941 : 250;
  5942 : 248;
  5943 : 28;
  5944 : 255;
  5945 : 0;
  5946 : 23;
  5947 : 8;
  5948 : 233;
  5949 : 247;
  5950 : 0;
  5951 : 252;
  5952 : 243;
  5953 : 0;
  5954 : 6;
  5955 : 6;
  5956 : 254;
  5957 : 14;
  5958 : 3;
  5959 : 245;
  5960 : 0;
  5961 : 243;
  5962 : 2;
  5963 : 2;
  5964 : 250;
  5965 : 0;
  5966 : 235;
  5967 : 6;
  5968 : 0;
  5969 : 249;
  5970 : 247;
  5971 : 251;
  5972 : 13;
  5973 : 18;
  5974 : 233;
  5975 : 236;
  5976 : 252;
  5977 : 245;
  5978 : 0;
  5979 : 20;
  5980 : 19;
  5981 : 0;
  5982 : 242;
  5983 : 19;
  5984 : 254;
  5985 : 0;
  5986 : 0;
  5987 : 244;
  5988 : 6;
  5989 : 3;
  5990 : 0;
  5991 : 35;
  5992 : 241;
  5993 : 0;
  5994 : 36;
  5995 : 0;
  5996 : 15;
  5997 : 0;
  5998 : 0;
  5999 : 5;
  6000 : 248;
  6001 : 20;
  6002 : 232;
  6003 : 0;
  6004 : 0;
  6005 : 238;
  6006 : 255;
  6007 : 6;
  6008 : 0;
  6009 : 0;
  6010 : 14;
  6011 : 252;
  6012 : 243;
  6013 : 0;
  6014 : 0;
  6015 : 6;
  6016 : 212;
  6017 : 0;
  6018 : 18;
  6019 : 29;
  6020 : 231;
  6021 : 31;
  6022 : 236;
  6023 : 28;
  6024 : 73;
  6025 : 29;
  6026 : 23;
  6027 : 242;
  6028 : 21;
  6029 : 239;
  6030 : 12;
  6031 : 32;
  6032 : 0;
  6033 : 226;
  6034 : 0;
  6035 : 220;
  6036 : 225;
  6037 : 239;
  6038 : 247;
  6039 : 21;
  6040 : 11;
  6041 : 250;
  6042 : 0;
  6043 : 238;
  6044 : 239;
  6045 : 0;
  6046 : 20;
  6047 : 248;
  6048 : 19;
  6049 : 0;
  6050 : 0;
  6051 : 238;
  6052 : 241;
  6053 : 37;
  6054 : 7;
  6055 : 255;
  6056 : 34;
  6057 : 0;
  6058 : 208;
  6059 : 0;
  6060 : 211;
  6061 : 14;
  6062 : 0;
  6063 : 18;
  6064 : 248;
  6065 : 20;
  6066 : 238;
  6067 : 45;
  6068 : 0;
  6069 : 251;
  6070 : 12;
  6071 : 4;
  6072 : 241;
  6073 : 0;
  6074 : 2;
  6075 : 10;
  6076 : 36;
  6077 : 0;
  6078 : 12;
  6079 : 245;
  6080 : 217;
  6081 : 0;
  6082 : 247;
  6083 : 236;
  6084 : 0;
  6085 : 245;
  6086 : 242;
  6087 : 32;
  6088 : 224;
  6089 : 4;
  6090 : 210;
  6091 : 67;
  6092 : 219;
  6093 : 6;
  6094 : 31;
  6095 : 243;
  6096 : 0;
  6097 : 69;
  6098 : 0;
  6099 : 20;
  6100 : 54;
  6101 : 214;
  6102 : 247;
  6103 : 243;
  6104 : 8;
  6105 : 0;
  6106 : 0;
  6107 : 234;
  6108 : 235;
  6109 : 244;
  6110 : 224;
  6111 : 36;
  6112 : 188;
  6113 : 0;
  6114 : 0;
  6115 : 232;
  6116 : 249;
  6117 : 246;
  6118 : 23;
  6119 : 16;
  6120 : 246;
  6121 : 8;
  6122 : 38;
  6123 : 246;
  6124 : 38;
  6125 : 255;
  6126 : 249;
  6127 : 245;
  6128 : 249;
  6129 : 232;
  6130 : 192;
  6131 : 31;
  6132 : 0;
  6133 : 3;
  6134 : 219;
  6135 : 20;
  6136 : 58;
  6137 : 247;
  6138 : 13;
  6139 : 48;
  6140 : 244;
  6141 : 0;
  6142 : 0;
  6143 : 236;
  6144 : 15;
  6145 : 0;
  6146 : 250;
  6147 : 244;
  6148 : 244;
  6149 : 247;
  6150 : 255;
  6151 : 237;
  6152 : 242;
  6153 : 9;
  6154 : 246;
  6155 : 0;
  6156 : 15;
  6157 : 1;
  6158 : 7;
  6159 : 253;
  6160 : 0;
  6161 : 249;
  6162 : 0;
  6163 : 8;
  6164 : 2;
  6165 : 2;
  6166 : 18;
  6167 : 254;
  6168 : 240;
  6169 : 234;
  6170 : 0;
  6171 : 29;
  6172 : 239;
  6173 : 243;
  6174 : 24;
  6175 : 9;
  6176 : 241;
  6177 : 0;
  6178 : 0;
  6179 : 254;
  6180 : 22;
  6181 : 4;
  6182 : 255;
  6183 : 237;
  6184 : 250;
  6185 : 248;
  6186 : 23;
  6187 : 9;
  6188 : 4;
  6189 : 251;
  6190 : 0;
  6191 : 2;
  6192 : 0;
  6193 : 250;
  6194 : 249;
  6195 : 246;
  6196 : 0;
  6197 : 4;
  6198 : 2;
  6199 : 247;
  6200 : 243;
  6201 : 0;
  6202 : 14;
  6203 : 8;
  6204 : 3;
  6205 : 0;
  6206 : 0;
  6207 : 246;
  6208 : 25;
  6209 : 0;
  6210 : 254;
  6211 : 0;
  6212 : 251;
  6213 : 4;
  6214 : 244;
  6215 : 255;
  6216 : 255;
  6217 : 1;
  6218 : 252;
  6219 : 11;
  6220 : 2;
  6221 : 218;
  6222 : 246;
  6223 : 12;
  6224 : 0;
  6225 : 249;
  6226 : 0;
  6227 : 248;
  6228 : 5;
  6229 : 7;
  6230 : 1;
  6231 : 233;
  6232 : 17;
  6233 : 202;
  6234 : 0;
  6235 : 17;
  6236 : 17;
  6237 : 0;
  6238 : 3;
  6239 : 251;
  6240 : 15;
  6241 : 247;
  6242 : 243;
  6243 : 19;
  6244 : 7;
  6245 : 249;
  6246 : 249;
  6247 : 1;
  6248 : 248;
  6249 : 0;
  6250 : 5;
  6251 : 248;
  6252 : 254;
  6253 : 248;
  6254 : 0;
  6255 : 5;
  6256 : 0;
  6257 : 230;
  6258 : 2;
  6259 : 254;
  6260 : 0;
  6261 : 11;
  6262 : 17;
  6263 : 255;
  6264 : 255;
  6265 : 0;
  6266 : 19;
  6267 : 247;
  6268 : 249;
  6269 : 248;
  6270 : 0;
  6271 : 26;
  6272 : 203;
  6273 : 0;
  6274 : 11;
  6275 : 27;
  6276 : 226;
  6277 : 255;
  6278 : 6;
  6279 : 24;
  6280 : 18;
  6281 : 18;
  6282 : 12;
  6283 : 8;
  6284 : 3;
  6285 : 241;
  6286 : 44;
  6287 : 17;
  6288 : 0;
  6289 : 229;
  6290 : 0;
  6291 : 239;
  6292 : 241;
  6293 : 253;
  6294 : 248;
  6295 : 39;
  6296 : 35;
  6297 : 3;
  6298 : 0;
  6299 : 234;
  6300 : 11;
  6301 : 247;
  6302 : 255;
  6303 : 243;
  6304 : 9;
  6305 : 0;
  6306 : 0;
  6307 : 248;
  6308 : 228;
  6309 : 22;
  6310 : 243;
  6311 : 24;
  6312 : 255;
  6313 : 247;
  6314 : 225;
  6315 : 246;
  6316 : 215;
  6317 : 3;
  6318 : 0;
  6319 : 38;
  6320 : 0;
  6321 : 16;
  6322 : 211;
  6323 : 14;
  6324 : 248;
  6325 : 6;
  6326 : 27;
  6327 : 250;
  6328 : 253;
  6329 : 0;
  6330 : 1;
  6331 : 21;
  6332 : 28;
  6333 : 0;
  6334 : 0;
  6335 : 242;
  6336 : 4;
  6337 : 0;
  6338 : 200;
  6339 : 4;
  6340 : 246;
  6341 : 6;
  6342 : 250;
  6343 : 245;
  6344 : 3;
  6345 : 21;
  6346 : 220;
  6347 : 17;
  6348 : 25;
  6349 : 241;
  6350 : 229;
  6351 : 15;
  6352 : 0;
  6353 : 245;
  6354 : 0;
  6355 : 19;
  6356 : 32;
  6357 : 251;
  6358 : 2;
  6359 : 227;
  6360 : 233;
  6361 : 239;
  6362 : 0;
  6363 : 6;
  6364 : 224;
  6365 : 243;
  6366 : 11;
  6367 : 236;
  6368 : 35;
  6369 : 0;
  6370 : 246;
  6371 : 16;
  6372 : 9;
  6373 : 9;
  6374 : 242;
  6375 : 246;
  6376 : 27;
  6377 : 0;
  6378 : 3;
  6379 : 0;
  6380 : 245;
  6381 : 236;
  6382 : 0;
  6383 : 216;
  6384 : 0;
  6385 : 232;
  6386 : 19;
  6387 : 248;
  6388 : 0;
  6389 : 247;
  6390 : 2;
  6391 : 246;
  6392 : 253;
  6393 : 0;
  6394 : 235;
  6395 : 220;
  6396 : 15;
  6397 : 247;
  6398 : 0;
  6399 : 16;
  6400 : 3;
  6401 : 8;
  6402 : 18;
  6403 : 27;
  6404 : 31;
  6405 : 255;
  6406 : 10;
  6407 : 229;
  6408 : 231;
  6409 : 5;
  6410 : 235;
  6411 : 31;
  6412 : 234;
  6413 : 241;
  6414 : 248;
  6415 : 5;
  6416 : 0;
  6417 : 9;
  6418 : 0;
  6419 : 244;
  6420 : 4;
  6421 : 239;
  6422 : 252;
  6423 : 253;
  6424 : 226;
  6425 : 247;
  6426 : 0;
  6427 : 34;
  6428 : 8;
  6429 : 0;
  6430 : 1;
  6431 : 243;
  6432 : 249;
  6433 : 248;
  6434 : 0;
  6435 : 238;
  6436 : 23;
  6437 : 255;
  6438 : 33;
  6439 : 0;
  6440 : 9;
  6441 : 0;
  6442 : 242;
  6443 : 0;
  6444 : 217;
  6445 : 240;
  6446 : 0;
  6447 : 2;
  6448 : 0;
  6449 : 21;
  6450 : 14;
  6451 : 13;
  6452 : 0;
  6453 : 227;
  6454 : 234;
  6455 : 235;
  6456 : 255;
  6457 : 0;
  6458 : 23;
  6459 : 246;
  6460 : 31;
  6461 : 0;
  6462 : 0;
  6463 : 252;
  6464 : 0;
  6465 : 0;
  6466 : 3;
  6467 : 230;
  6468 : 242;
  6469 : 15;
  6470 : 214;
  6471 : 15;
  6472 : 4;
  6473 : 255;
  6474 : 234;
  6475 : 0;
  6476 : 19;
  6477 : 0;
  6478 : 8;
  6479 : 5;
  6480 : 0;
  6481 : 8;
  6482 : 0;
  6483 : 242;
  6484 : 244;
  6485 : 6;
  6486 : 0;
  6487 : 245;
  6488 : 0;
  6489 : 245;
  6490 : 247;
  6491 : 247;
  6492 : 248;
  6493 : 0;
  6494 : 4;
  6495 : 14;
  6496 : 236;
  6497 : 7;
  6498 : 0;
  6499 : 1;
  6500 : 18;
  6501 : 254;
  6502 : 246;
  6503 : 23;
  6504 : 1;
  6505 : 0;
  6506 : 15;
  6507 : 0;
  6508 : 250;
  6509 : 9;
  6510 : 0;
  6511 : 4;
  6512 : 0;
  6513 : 0;
  6514 : 230;
  6515 : 241;
  6516 : 0;
  6517 : 22;
  6518 : 9;
  6519 : 11;
  6520 : 22;
  6521 : 0;
  6522 : 14;
  6523 : 40;
  6524 : 11;
  6525 : 0;
  6526 : 247;
  6527 : 4;
  6528 : 6;
  6529 : 0;
  6530 : 227;
  6531 : 4;
  6532 : 3;
  6533 : 7;
  6534 : 253;
  6535 : 0;
  6536 : 0;
  6537 : 18;
  6538 : 242;
  6539 : 5;
  6540 : 253;
  6541 : 245;
  6542 : 249;
  6543 : 16;
  6544 : 0;
  6545 : 248;
  6546 : 248;
  6547 : 219;
  6548 : 11;
  6549 : 4;
  6550 : 245;
  6551 : 208;
  6552 : 243;
  6553 : 230;
  6554 : 0;
  6555 : 7;
  6556 : 229;
  6557 : 245;
  6558 : 0;
  6559 : 253;
  6560 : 0;
  6561 : 7;
  6562 : 245;
  6563 : 9;
  6564 : 3;
  6565 : 252;
  6566 : 253;
  6567 : 255;
  6568 : 16;
  6569 : 0;
  6570 : 240;
  6571 : 0;
  6572 : 3;
  6573 : 2;
  6574 : 0;
  6575 : 221;
  6576 : 0;
  6577 : 230;
  6578 : 3;
  6579 : 250;
  6580 : 0;
  6581 : 248;
  6582 : 22;
  6583 : 247;
  6584 : 4;
  6585 : 0;
  6586 : 9;
  6587 : 253;
  6588 : 27;
  6589 : 246;
  6590 : 0;
  6591 : 0;
  6592 : 16;
  6593 : 0;
  6594 : 238;
  6595 : 5;
  6596 : 253;
  6597 : 22;
  6598 : 242;
  6599 : 253;
  6600 : 13;
  6601 : 255;
  6602 : 249;
  6603 : 0;
  6604 : 250;
  6605 : 235;
  6606 : 4;
  6607 : 23;
  6608 : 0;
  6609 : 221;
  6610 : 0;
  6611 : 253;
  6612 : 18;
  6613 : 22;
  6614 : 246;
  6615 : 209;
  6616 : 8;
  6617 : 230;
  6618 : 0;
  6619 : 9;
  6620 : 3;
  6621 : 247;
  6622 : 251;
  6623 : 237;
  6624 : 17;
  6625 : 0;
  6626 : 0;
  6627 : 6;
  6628 : 253;
  6629 : 244;
  6630 : 249;
  6631 : 255;
  6632 : 250;
  6633 : 0;
  6634 : 3;
  6635 : 0;
  6636 : 7;
  6637 : 251;
  6638 : 0;
  6639 : 242;
  6640 : 0;
  6641 : 229;
  6642 : 0;
  6643 : 3;
  6644 : 0;
  6645 : 6;
  6646 : 14;
  6647 : 2;
  6648 : 232;
  6649 : 0;
  6650 : 21;
  6651 : 236;
  6652 : 249;
  6653 : 0;
  6654 : 0;
  6655 : 0;
  6656 : 0;
  6657 : 0;
  6658 : 22;
  6659 : 19;
  6660 : 235;
  6661 : 3;
  6662 : 225;
  6663 : 13;
  6664 : 17;
  6665 : 19;
  6666 : 247;
  6667 : 254;
  6668 : 2;
  6669 : 1;
  6670 : 5;
  6671 : 31;
  6672 : 0;
  6673 : 243;
  6674 : 247;
  6675 : 232;
  6676 : 8;
  6677 : 252;
  6678 : 251;
  6679 : 28;
  6680 : 15;
  6681 : 251;
  6682 : 246;
  6683 : 235;
  6684 : 18;
  6685 : 0;
  6686 : 228;
  6687 : 3;
  6688 : 13;
  6689 : 0;
  6690 : 0;
  6691 : 250;
  6692 : 238;
  6693 : 16;
  6694 : 232;
  6695 : 24;
  6696 : 31;
  6697 : 248;
  6698 : 253;
  6699 : 0;
  6700 : 255;
  6701 : 23;
  6702 : 0;
  6703 : 35;
  6704 : 0;
  6705 : 13;
  6706 : 224;
  6707 : 35;
  6708 : 0;
  6709 : 9;
  6710 : 13;
  6711 : 5;
  6712 : 7;
  6713 : 0;
  6714 : 23;
  6715 : 7;
  6716 : 1;
  6717 : 0;
  6718 : 12;
  6719 : 19;
  6720 : 14;
  6721 : 0;
  6722 : 23;
  6723 : 17;
  6724 : 57;
  6725 : 4;
  6726 : 245;
  6727 : 240;
  6728 : 252;
  6729 : 254;
  6730 : 231;
  6731 : 25;
  6732 : 198;
  6733 : 32;
  6734 : 1;
  6735 : 219;
  6736 : 0;
  6737 : 61;
  6738 : 247;
  6739 : 45;
  6740 : 11;
  6741 : 226;
  6742 : 236;
  6743 : 7;
  6744 : 16;
  6745 : 225;
  6746 : 0;
  6747 : 18;
  6748 : 44;
  6749 : 8;
  6750 : 220;
  6751 : 21;
  6752 : 214;
  6753 : 0;
  6754 : 0;
  6755 : 170;
  6756 : 5;
  6757 : 235;
  6758 : 17;
  6759 : 43;
  6760 : 250;
  6761 : 0;
  6762 : 245;
  6763 : 0;
  6764 : 20;
  6765 : 34;
  6766 : 0;
  6767 : 240;
  6768 : 247;
  6769 : 21;
  6770 : 198;
  6771 : 69;
  6772 : 0;
  6773 : 180;
  6774 : 202;
  6775 : 63;
  6776 : 45;
  6777 : 0;
  6778 : 34;
  6779 : 76;
  6780 : 23;
  6781 : 0;
  6782 : 0;
  6783 : 9;
  6784 : 242;
  6785 : 0;
  6786 : 224;
  6787 : 20;
  6788 : 255;
  6789 : 25;
  6790 : 7;
  6791 : 3;
  6792 : 43;
  6793 : 63;
  6794 : 6;
  6795 : 8;
  6796 : 255;
  6797 : 228;
  6798 : 233;
  6799 : 16;
  6800 : 247;
  6801 : 231;
  6802 : 248;
  6803 : 236;
  6804 : 8;
  6805 : 244;
  6806 : 246;
  6807 : 210;
  6808 : 27;
  6809 : 35;
  6810 : 245;
  6811 : 17;
  6812 : 0;
  6813 : 0;
  6814 : 17;
  6815 : 245;
  6816 : 249;
  6817 : 0;
  6818 : 0;
  6819 : 204;
  6820 : 14;
  6821 : 6;
  6822 : 52;
  6823 : 214;
  6824 : 27;
  6825 : 248;
  6826 : 255;
  6827 : 0;
  6828 : 216;
  6829 : 31;
  6830 : 0;
  6831 : 7;
  6832 : 0;
  6833 : 2;
  6834 : 20;
  6835 : 31;
  6836 : 0;
  6837 : 245;
  6838 : 217;
  6839 : 249;
  6840 : 193;
  6841 : 0;
  6842 : 6;
  6843 : 22;
  6844 : 24;
  6845 : 0;
  6846 : 0;
  6847 : 255;
  6848 : 13;
  6849 : 246;
  6850 : 225;
  6851 : 16;
  6852 : 253;
  6853 : 1;
  6854 : 6;
  6855 : 4;
  6856 : 249;
  6857 : 9;
  6858 : 218;
  6859 : 255;
  6860 : 4;
  6861 : 236;
  6862 : 242;
  6863 : 2;
  6864 : 0;
  6865 : 254;
  6866 : 0;
  6867 : 254;
  6868 : 252;
  6869 : 0;
  6870 : 2;
  6871 : 216;
  6872 : 255;
  6873 : 241;
  6874 : 0;
  6875 : 14;
  6876 : 249;
  6877 : 0;
  6878 : 1;
  6879 : 9;
  6880 : 25;
  6881 : 248;
  6882 : 247;
  6883 : 2;
  6884 : 1;
  6885 : 0;
  6886 : 5;
  6887 : 2;
  6888 : 253;
  6889 : 0;
  6890 : 252;
  6891 : 246;
  6892 : 255;
  6893 : 248;
  6894 : 0;
  6895 : 237;
  6896 : 0;
  6897 : 3;
  6898 : 5;
  6899 : 236;
  6900 : 8;
  6901 : 251;
  6902 : 7;
  6903 : 229;
  6904 : 242;
  6905 : 0;
  6906 : 14;
  6907 : 213;
  6908 : 23;
  6909 : 0;
  6910 : 0;
  6911 : 16;
  6912 : 0;
  6913 : 0;
  6914 : 0;
  6915 : 0;
  6916 : 0;
  6917 : 0;
  6918 : 0;
  6919 : 246;
  6920 : 0;
  6921 : 8;
  6922 : 0;
  6923 : 15;
  6924 : 243;
  6925 : 0;
  6926 : 0;
  6927 : 0;
  6928 : 0;
  6929 : 0;
  6930 : 0;
  6931 : 9;
  6932 : 18;
  6933 : 0;
  6934 : 0;
  6935 : 0;
  6936 : 0;
  6937 : 0;
  6938 : 0;
  6939 : 0;
  6940 : 0;
  6941 : 8;
  6942 : 8;
  6943 : 0;
  6944 : 0;
  6945 : 0;
  6946 : 0;
  6947 : 0;
  6948 : 0;
  6949 : 0;
  6950 : 9;
  6951 : 0;
  6952 : 0;
  6953 : 0;
  6954 : 0;
  6955 : 0;
  6956 : 0;
  6957 : 9;
  6958 : 9;
  6959 : 0;
  6960 : 0;
  6961 : 0;
  6962 : 0;
  6963 : 15;
  6964 : 0;
  6965 : 0;
  6966 : 0;
  6967 : 0;
  6968 : 11;
  6969 : 0;
  6970 : 0;
  6971 : 8;
  6972 : 0;
  6973 : 0;
  6974 : 0;
  6975 : 0;
  6976 : 249;
  6977 : 0;
  6978 : 245;
  6979 : 2;
  6980 : 199;
  6981 : 63;
  6982 : 219;
  6983 : 25;
  6984 : 34;
  6985 : 31;
  6986 : 16;
  6987 : 3;
  6988 : 9;
  6989 : 209;
  6990 : 244;
  6991 : 7;
  6992 : 244;
  6993 : 229;
  6994 : 0;
  6995 : 12;
  6996 : 20;
  6997 : 23;
  6998 : 244;
  6999 : 227;
  7000 : 23;
  7001 : 17;
  7002 : 248;
  7003 : 21;
  7004 : 9;
  7005 : 0;
  7006 : 228;
  7007 : 5;
  7008 : 237;
  7009 : 0;
  7010 : 247;
  7011 : 218;
  7012 : 2;
  7013 : 10;
  7014 : 39;
  7015 : 250;
  7016 : 245;
  7017 : 0;
  7018 : 15;
  7019 : 0;
  7020 : 248;
  7021 : 33;
  7022 : 0;
  7023 : 47;
  7024 : 0;
  7025 : 212;
  7026 : 200;
  7027 : 38;
  7028 : 0;
  7029 : 245;
  7030 : 229;
  7031 : 35;
  7032 : 209;
  7033 : 248;
  7034 : 1;
  7035 : 26;
  7036 : 224;
  7037 : 0;
  7038 : 0;
  7039 : 17;
  7040 : 253;
  7041 : 0;
  7042 : 17;
  7043 : 6;
  7044 : 254;
  7045 : 237;
  7046 : 255;
  7047 : 249;
  7048 : 32;
  7049 : 254;
  7050 : 9;
  7051 : 244;
  7052 : 4;
  7053 : 213;
  7054 : 229;
  7055 : 0;
  7056 : 0;
  7057 : 11;
  7058 : 0;
  7059 : 252;
  7060 : 242;
  7061 : 241;
  7062 : 243;
  7063 : 12;
  7064 : 252;
  7065 : 231;
  7066 : 247;
  7067 : 244;
  7068 : 2;
  7069 : 244;
  7070 : 243;
  7071 : 22;
  7072 : 11;
  7073 : 0;
  7074 : 0;
  7075 : 254;
  7076 : 236;
  7077 : 7;
  7078 : 10;
  7079 : 11;
  7080 : 20;
  7081 : 0;
  7082 : 242;
  7083 : 248;
  7084 : 248;
  7085 : 249;
  7086 : 0;
  7087 : 19;
  7088 : 0;
  7089 : 231;
  7090 : 8;
  7091 : 20;
  7092 : 0;
  7093 : 252;
  7094 : 10;
  7095 : 5;
  7096 : 4;
  7097 : 247;
  7098 : 22;
  7099 : 246;
  7100 : 4;
  7101 : 0;
  7102 : 9;
  7103 : 16;
  7104 : 7;
  7105 : 0;
  7106 : 16;
  7107 : 219;
  7108 : 243;
  7109 : 30;
  7110 : 199;
  7111 : 234;
  7112 : 12;
  7113 : 3;
  7114 : 4;
  7115 : 8;
  7116 : 3;
  7117 : 13;
  7118 : 240;
  7119 : 247;
  7120 : 0;
  7121 : 2;
  7122 : 0;
  7123 : 10;
  7124 : 12;
  7125 : 7;
  7126 : 243;
  7127 : 9;
  7128 : 7;
  7129 : 242;
  7130 : 0;
  7131 : 7;
  7132 : 252;
  7133 : 0;
  7134 : 7;
  7135 : 1;
  7136 : 244;
  7137 : 0;
  7138 : 0;
  7139 : 249;
  7140 : 248;
  7141 : 247;
  7142 : 8;
  7143 : 3;
  7144 : 252;
  7145 : 0;
  7146 : 254;
  7147 : 0;
  7148 : 14;
  7149 : 254;
  7150 : 0;
  7151 : 2;
  7152 : 0;
  7153 : 234;
  7154 : 243;
  7155 : 26;
  7156 : 7;
  7157 : 8;
  7158 : 13;
  7159 : 26;
  7160 : 248;
  7161 : 247;
  7162 : 254;
  7163 : 251;
  7164 : 252;
  7165 : 0;
  7166 : 242;
  7167 : 236;
  7168 : 211;
  7169 : 248;
  7170 : 36;
  7171 : 235;
  7172 : 233;
  7173 : 18;
  7174 : 231;
  7175 : 255;
  7176 : 1;
  7177 : 255;
  7178 : 6;
  7179 : 230;
  7180 : 13;
  7181 : 17;
  7182 : 29;
  7183 : 17;
  7184 : 9;
  7185 : 3;
  7186 : 248;
  7187 : 235;
  7188 : 225;
  7189 : 0;
  7190 : 225;
  7191 : 24;
  7192 : 240;
  7193 : 229;
  7194 : 0;
  7195 : 229;
  7196 : 243;
  7197 : 0;
  7198 : 249;
  7199 : 16;
  7200 : 249;
  7201 : 0;
  7202 : 0;
  7203 : 231;
  7204 : 249;
  7205 : 16;
  7206 : 240;
  7207 : 16;
  7208 : 19;
  7209 : 0;
  7210 : 249;
  7211 : 0;
  7212 : 18;
  7213 : 36;
  7214 : 0;
  7215 : 44;
  7216 : 0;
  7217 : 26;
  7218 : 170;
  7219 : 255;
  7220 : 0;
  7221 : 23;
  7222 : 16;
  7223 : 2;
  7224 : 1;
  7225 : 0;
  7226 : 3;
  7227 : 23;
  7228 : 249;
  7229 : 0;
  7230 : 0;
  7231 : 205;
  7232 : 32;
  7233 : 0;
  7234 : 238;
  7235 : 245;
  7236 : 252;
  7237 : 254;
  7238 : 242;
  7239 : 254;
  7240 : 3;
  7241 : 1;
  7242 : 241;
  7243 : 235;
  7244 : 2;
  7245 : 235;
  7246 : 252;
  7247 : 37;
  7248 : 0;
  7249 : 219;
  7250 : 0;
  7251 : 217;
  7252 : 253;
  7253 : 1;
  7254 : 254;
  7255 : 226;
  7256 : 240;
  7257 : 232;
  7258 : 0;
  7259 : 1;
  7260 : 255;
  7261 : 0;
  7262 : 3;
  7263 : 249;
  7264 : 31;
  7265 : 0;
  7266 : 0;
  7267 : 26;
  7268 : 254;
  7269 : 250;
  7270 : 251;
  7271 : 251;
  7272 : 5;
  7273 : 0;
  7274 : 231;
  7275 : 0;
  7276 : 252;
  7277 : 248;
  7278 : 0;
  7279 : 237;
  7280 : 0;
  7281 : 236;
  7282 : 17;
  7283 : 243;
  7284 : 0;
  7285 : 8;
  7286 : 21;
  7287 : 7;
  7288 : 236;
  7289 : 0;
  7290 : 18;
  7291 : 232;
  7292 : 4;
  7293 : 0;
  7294 : 0;
  7295 : 251;
  7296 : 1;
  7297 : 0;
  7298 : 221;
  7299 : 7;
  7300 : 251;
  7301 : 7;
  7302 : 241;
  7303 : 9;
  7304 : 23;
  7305 : 30;
  7306 : 246;
  7307 : 251;
  7308 : 3;
  7309 : 243;
  7310 : 243;
  7311 : 15;
  7312 : 247;
  7313 : 217;
  7314 : 0;
  7315 : 252;
  7316 : 247;
  7317 : 250;
  7318 : 249;
  7319 : 238;
  7320 : 16;
  7321 : 201;
  7322 : 247;
  7323 : 14;
  7324 : 22;
  7325 : 0;
  7326 : 238;
  7327 : 245;
  7328 : 19;
  7329 : 0;
  7330 : 0;
  7331 : 250;
  7332 : 4;
  7333 : 255;
  7334 : 253;
  7335 : 19;
  7336 : 19;
  7337 : 0;
  7338 : 17;
  7339 : 0;
  7340 : 0;
  7341 : 221;
  7342 : 0;
  7343 : 252;
  7344 : 248;
  7345 : 217;
  7346 : 254;
  7347 : 8;
  7348 : 247;
  7349 : 6;
  7350 : 253;
  7351 : 8;
  7352 : 238;
  7353 : 246;
  7354 : 16;
  7355 : 232;
  7356 : 4;
  7357 : 0;
  7358 : 246;
  7359 : 21;
  7360 : 7;
  7361 : 245;
  7362 : 222;
  7363 : 0;
  7364 : 220;
  7365 : 18;
  7366 : 243;
  7367 : 6;
  7368 : 5;
  7369 : 20;
  7370 : 0;
  7371 : 246;
  7372 : 6;
  7373 : 236;
  7374 : 250;
  7375 : 21;
  7376 : 0;
  7377 : 236;
  7378 : 0;
  7379 : 246;
  7380 : 17;
  7381 : 15;
  7382 : 19;
  7383 : 195;
  7384 : 238;
  7385 : 239;
  7386 : 0;
  7387 : 254;
  7388 : 251;
  7389 : 0;
  7390 : 16;
  7391 : 246;
  7392 : 22;
  7393 : 247;
  7394 : 0;
  7395 : 8;
  7396 : 10;
  7397 : 0;
  7398 : 249;
  7399 : 254;
  7400 : 7;
  7401 : 0;
  7402 : 237;
  7403 : 0;
  7404 : 7;
  7405 : 230;
  7406 : 0;
  7407 : 244;
  7408 : 248;
  7409 : 232;
  7410 : 10;
  7411 : 249;
  7412 : 0;
  7413 : 16;
  7414 : 19;
  7415 : 249;
  7416 : 237;
  7417 : 0;
  7418 : 0;
  7419 : 229;
  7420 : 7;
  7421 : 247;
  7422 : 0;
  7423 : 4;
  7424 : 232;
  7425 : 0;
  7426 : 247;
  7427 : 29;
  7428 : 11;
  7429 : 233;
  7430 : 242;
  7431 : 43;
  7432 : 5;
  7433 : 34;
  7434 : 222;
  7435 : 36;
  7436 : 250;
  7437 : 19;
  7438 : 255;
  7439 : 249;
  7440 : 8;
  7441 : 25;
  7442 : 0;
  7443 : 25;
  7444 : 11;
  7445 : 199;
  7446 : 24;
  7447 : 252;
  7448 : 30;
  7449 : 224;
  7450 : 0;
  7451 : 223;
  7452 : 8;
  7453 : 0;
  7454 : 214;
  7455 : 42;
  7456 : 252;
  7457 : 0;
  7458 : 0;
  7459 : 204;
  7460 : 246;
  7461 : 5;
  7462 : 4;
  7463 : 29;
  7464 : 41;
  7465 : 0;
  7466 : 9;
  7467 : 0;
  7468 : 5;
  7469 : 244;
  7470 : 0;
  7471 : 248;
  7472 : 8;
  7473 : 255;
  7474 : 208;
  7475 : 53;
  7476 : 0;
  7477 : 223;
  7478 : 190;
  7479 : 32;
  7480 : 33;
  7481 : 0;
  7482 : 245;
  7483 : 14;
  7484 : 23;
  7485 : 0;
  7486 : 9;
  7487 : 5;
  7488 : 14;
  7489 : 247;
  7490 : 7;
  7491 : 7;
  7492 : 15;
  7493 : 2;
  7494 : 19;
  7495 : 236;
  7496 : 241;
  7497 : 3;
  7498 : 217;
  7499 : 252;
  7500 : 226;
  7501 : 251;
  7502 : 251;
  7503 : 9;
  7504 : 0;
  7505 : 12;
  7506 : 0;
  7507 : 226;
  7508 : 244;
  7509 : 254;
  7510 : 255;
  7511 : 228;
  7512 : 250;
  7513 : 243;
  7514 : 246;
  7515 : 14;
  7516 : 1;
  7517 : 0;
  7518 : 246;
  7519 : 231;
  7520 : 245;
  7521 : 8;
  7522 : 249;
  7523 : 244;
  7524 : 251;
  7525 : 241;
  7526 : 15;
  7527 : 16;
  7528 : 7;
  7529 : 0;
  7530 : 228;
  7531 : 0;
  7532 : 230;
  7533 : 5;
  7534 : 248;
  7535 : 222;
  7536 : 0;
  7537 : 249;
  7538 : 9;
  7539 : 0;
  7540 : 0;
  7541 : 250;
  7542 : 14;
  7543 : 255;
  7544 : 3;
  7545 : 0;
  7546 : 25;
  7547 : 252;
  7548 : 12;
  7549 : 0;
  7550 : 0;
  7551 : 243;
  7552 : 7;
  7553 : 0;
  7554 : 235;
  7555 : 224;
  7556 : 201;
  7557 : 28;
  7558 : 237;
  7559 : 238;
  7560 : 0;
  7561 : 28;
  7562 : 211;
  7563 : 16;
  7564 : 7;
  7565 : 255;
  7566 : 235;
  7567 : 41;
  7568 : 247;
  7569 : 224;
  7570 : 246;
  7571 : 16;
  7572 : 70;
  7573 : 251;
  7574 : 242;
  7575 : 190;
  7576 : 35;
  7577 : 247;
  7578 : 0;
  7579 : 10;
  7580 : 241;
  7581 : 0;
  7582 : 32;
  7583 : 252;
  7584 : 13;
  7585 : 0;
  7586 : 0;
  7587 : 48;
  7588 : 4;
  7589 : 0;
  7590 : 231;
  7591 : 220;
  7592 : 15;
  7593 : 248;
  7594 : 18;
  7595 : 0;
  7596 : 35;
  7597 : 196;
  7598 : 0;
  7599 : 205;
  7600 : 0;
  7601 : 239;
  7602 : 7;
  7603 : 246;
  7604 : 0;
  7605 : 34;
  7606 : 2;
  7607 : 11;
  7608 : 22;
  7609 : 0;
  7610 : 6;
  7611 : 247;
  7612 : 243;
  7613 : 0;
  7614 : 242;
  7615 : 19;
  7616 : 5;
  7617 : 0;
  7618 : 4;
  7619 : 249;
  7620 : 243;
  7621 : 27;
  7622 : 243;
  7623 : 5;
  7624 : 232;
  7625 : 12;
  7626 : 13;
  7627 : 10;
  7628 : 5;
  7629 : 0;
  7630 : 237;
  7631 : 239;
  7632 : 0;
  7633 : 11;
  7634 : 0;
  7635 : 238;
  7636 : 38;
  7637 : 250;
  7638 : 241;
  7639 : 239;
  7640 : 11;
  7641 : 250;
  7642 : 0;
  7643 : 14;
  7644 : 229;
  7645 : 0;
  7646 : 255;
  7647 : 16;
  7648 : 229;
  7649 : 0;
  7650 : 0;
  7651 : 14;
  7652 : 35;
  7653 : 11;
  7654 : 15;
  7655 : 239;
  7656 : 6;
  7657 : 0;
  7658 : 21;
  7659 : 0;
  7660 : 4;
  7661 : 23;
  7662 : 0;
  7663 : 5;
  7664 : 0;
  7665 : 6;
  7666 : 226;
  7667 : 3;
  7668 : 0;
  7669 : 16;
  7670 : 31;
  7671 : 246;
  7672 : 3;
  7673 : 0;
  7674 : 246;
  7675 : 7;
  7676 : 251;
  7677 : 248;
  7678 : 0;
  7679 : 249;
  7680 : 4;
  7681 : 0;
  7682 : 212;
  7683 : 11;
  7684 : 23;
  7685 : 8;
  7686 : 1;
  7687 : 253;
  7688 : 254;
  7689 : 45;
  7690 : 246;
  7691 : 3;
  7692 : 234;
  7693 : 237;
  7694 : 247;
  7695 : 2;
  7696 : 0;
  7697 : 254;
  7698 : 8;
  7699 : 219;
  7700 : 40;
  7701 : 224;
  7702 : 6;
  7703 : 211;
  7704 : 24;
  7705 : 14;
  7706 : 0;
  7707 : 32;
  7708 : 211;
  7709 : 0;
  7710 : 11;
  7711 : 5;
  7712 : 233;
  7713 : 246;
  7714 : 0;
  7715 : 222;
  7716 : 38;
  7717 : 15;
  7718 : 24;
  7719 : 207;
  7720 : 38;
  7721 : 0;
  7722 : 18;
  7723 : 0;
  7724 : 5;
  7725 : 18;
  7726 : 0;
  7727 : 204;
  7728 : 0;
  7729 : 248;
  7730 : 29;
  7731 : 11;
  7732 : 0;
  7733 : 9;
  7734 : 238;
  7735 : 4;
  7736 : 233;
  7737 : 0;
  7738 : 6;
  7739 : 14;
  7740 : 18;
  7741 : 0;
  7742 : 247;
  7743 : 36;
  7744 : 237;
  7745 : 0;
  7746 : 254;
  7747 : 248;
  7748 : 236;
  7749 : 6;
  7750 : 252;
  7751 : 23;
  7752 : 17;
  7753 : 243;
  7754 : 13;
  7755 : 11;
  7756 : 236;
  7757 : 250;
  7758 : 17;
  7759 : 253;
  7760 : 8;
  7761 : 4;
  7762 : 0;
