WIDTH=8;
DEPTH=640;
ADDRESS_RADIX=UNS;
DATA_RADIX=UNS;
CONTENT BEGIN
  0 : 195;
  1 : 189;
  2 : 32;
  3 : 211;
  4 : 40;
  5 : 248;
  6 : 139;
  7 : 53;
  8 : 31;
  9 : 18;
  10 : 0;
  11 : 226;
  12 : 0;
  13 : 0;
  14 : 0;
  15 : 46;
  16 : 215;
  17 : 0;
  18 : 0;
  19 : 37;
  20 : 0;
  21 : 82;
  22 : 236;
  23 : 200;
  24 : 70;
  25 : 241;
  26 : 159;
  27 : 190;
  28 : 213;
  29 : 42;
  30 : 34;
  31 : 1;
  32 : 236;
  33 : 11;
  34 : 214;
  35 : 7;
  36 : 249;
  37 : 4;
  38 : 6;
  39 : 159;
  40 : 17;
  41 : 254;
  42 : 164;
  43 : 212;
  44 : 57;
  45 : 241;
  46 : 248;
  47 : 34;
  48 : 160;
  49 : 4;
  50 : 152;
  51 : 56;
  52 : 36;
  53 : 9;
  54 : 255;
  55 : 207;
  56 : 173;
  57 : 240;
  58 : 251;
  59 : 20;
  60 : 54;
  61 : 1;
  62 : 40;
  63 : 212;
  64 : 185;
  65 : 206;
  66 : 250;
  67 : 70;
  68 : 189;
  69 : 3;
  70 : 253;
  71 : 183;
  72 : 246;
  73 : 45;
  74 : 129;
  75 : 3;
  76 : 9;
  77 : 172;
  78 : 5;
  79 : 208;
  80 : 217;
  81 : 251;
  82 : 252;
  83 : 7;
  84 : 11;
  85 : 198;
  86 : 176;
  87 : 1;
  88 : 45;
  89 : 9;
  90 : 208;
  91 : 248;
  92 : 4;
  93 : 65;
  94 : 2;
  95 : 169;
  96 : 5;
  97 : 47;
  98 : 235;
  99 : 10;
  100 : 252;
  101 : 67;
  102 : 6;
  103 : 161;
  104 : 42;
  105 : 19;
  106 : 182;
  107 : 5;
  108 : 226;
  109 : 2;
  110 : 178;
  111 : 44;
  112 : 74;
  113 : 160;
  114 : 241;
  115 : 187;
  116 : 80;
  117 : 10;
  118 : 188;
  119 : 195;
  120 : 36;
  121 : 217;
  122 : 197;
  123 : 34;
  124 : 179;
  125 : 244;
  126 : 235;
  127 : 188;
  128 : 10;
  129 : 34;
  130 : 44;
  131 : 59;
  132 : 234;
  133 : 220;
  134 : 231;
  135 : 234;
  136 : 243;
  137 : 237;
  138 : 27;
  139 : 241;
  140 : 252;
  141 : 175;
  142 : 253;
  143 : 5;
  144 : 5;
  145 : 31;
  146 : 4;
  147 : 145;
  148 : 8;
  149 : 250;
  150 : 178;
  151 : 239;
  152 : 195;
  153 : 7;
  154 : 52;
  155 : 8;
  156 : 231;
  157 : 242;
  158 : 47;
  159 : 57;
  160 : 0;
  161 : 0;
  162 : 49;
  163 : 36;
  164 : 0;
  165 : 223;
  166 : 47;
  167 : 0;
  168 : 46;
  169 : 0;
  170 : 226;
  171 : 45;
  172 : 12;
  173 : 246;
  174 : 252;
  175 : 58;
  176 : 38;
  177 : 13;
  178 : 189;
  179 : 192;
  180 : 209;
  181 : 0;
  182 : 0;
  183 : 222;
  184 : 0;
  185 : 0;
  186 : 36;
  187 : 0;
  188 : 221;
  189 : 0;
  190 : 61;
  191 : 247;
  192 : 198;
  193 : 255;
  194 : 61;
  195 : 244;
  196 : 56;
  197 : 248;
  198 : 162;
  199 : 63;
  200 : 198;
  201 : 27;
  202 : 4;
  203 : 249;
  204 : 0;
  205 : 164;
  206 : 27;
  207 : 13;
  208 : 186;
  209 : 47;
  210 : 84;
  211 : 189;
  212 : 63;
  213 : 211;
  214 : 203;
  215 : 206;
  216 : 247;
  217 : 175;
  218 : 50;
  219 : 247;
  220 : 71;
  221 : 10;
  222 : 197;
  223 : 43;
  224 : 240;
  225 : 38;
  226 : 6;
  227 : 9;
  228 : 196;
  229 : 2;
  230 : 26;
  231 : 91;
  232 : 167;
  233 : 197;
  234 : 193;
  235 : 234;
  236 : 5;
  237 : 3;
  238 : 52;
  239 : 252;
  240 : 179;
  241 : 206;
  242 : 33;
  243 : 58;
  244 : 141;
  245 : 0;
  246 : 52;
  247 : 20;
  248 : 39;
  249 : 172;
  250 : 250;
  251 : 190;
  252 : 16;
  253 : 249;
  254 : 191;
  255 : 181;
  256 : 14;
  257 : 168;
  258 : 163;
  259 : 253;
  260 : 210;
  261 : 0;
  262 : 34;
  263 : 0;
  264 : 0;
  265 : 0;
  266 : 226;
  267 : 0;
  268 : 0;
  269 : 219;
  270 : 47;
  271 : 247;
  272 : 65;
  273 : 224;
  274 : 249;
  275 : 247;
  276 : 231;
  277 : 60;
  278 : 11;
  279 : 218;
  280 : 66;
  281 : 154;
  282 : 247;
  283 : 238;
  284 : 39;
  285 : 202;
  286 : 8;
  287 : 244;
  288 : 48;
  289 : 5;
  290 : 255;
  291 : 4;
  292 : 205;
  293 : 0;
  294 : 255;
  295 : 0;
  296 : 0;
  297 : 255;
  298 : 253;
  299 : 215;
  300 : 255;
  301 : 187;
  302 : 235;
  303 : 255;
  304 : 36;
  305 : 8;
  306 : 240;
  307 : 6;
  308 : 198;
  309 : 59;
  310 : 46;
  311 : 44;
  312 : 159;
  313 : 247;
  314 : 4;
  315 : 40;
  316 : 42;
  317 : 178;
  318 : 12;
  319 : 237;
  320 : 39;
  321 : 2;
  322 : 237;
  323 : 9;
  324 : 0;
  325 : 243;
  326 : 209;
  327 : 4;
  328 : 47;
  329 : 40;
  330 : 0;
  331 : 0;
  332 : 216;
  333 : 0;
  334 : 214;
  335 : 47;
  336 : 0;
  337 : 0;
  338 : 0;
  339 : 0;
  340 : 0;
  341 : 0;
  342 : 0;
  343 : 0;
  344 : 0;
  345 : 214;
  346 : 0;
  347 : 0;
  348 : 0;
  349 : 0;
  350 : 245;
  351 : 160;
  352 : 221;
  353 : 183;
  354 : 2;
  355 : 52;
  356 : 255;
  357 : 193;
  358 : 247;
  359 : 70;
  360 : 9;
  361 : 1;
  362 : 37;
  363 : 14;
  364 : 210;
  365 : 0;
  366 : 161;
  367 : 0;
  368 : 164;
  369 : 208;
  370 : 9;
  371 : 46;
  372 : 209;
  373 : 65;
  374 : 159;
  375 : 37;
  376 : 249;
  377 : 241;
  378 : 205;
  379 : 3;
  380 : 11;
  381 : 37;
  382 : 39;
  383 : 4;
  384 : 42;
  385 : 168;
  386 : 7;
  387 : 33;
  388 : 239;
  389 : 183;
  390 : 48;
  391 : 32;
  392 : 192;
  393 : 167;
  394 : 8;
  395 : 253;
  396 : 61;
  397 : 2;
  398 : 51;
  399 : 205;
  400 : 139;
  401 : 255;
  402 : 203;
  403 : 48;
  404 : 204;
  405 : 34;
  406 : 244;
  407 : 3;
  408 : 6;
  409 : 6;
  410 : 0;
  411 : 0;
  412 : 0;
  413 : 0;
  414 : 0;
  415 : 219;
  416 : 0;
  417 : 0;
  418 : 220;
  419 : 0;
  420 : 37;
  421 : 238;
  422 : 8;
  423 : 204;
  424 : 184;
  425 : 219;
  426 : 46;
  427 : 22;
  428 : 244;
  429 : 33;
  430 : 0;
  431 : 38;
  432 : 0;
  433 : 41;
  434 : 0;
  435 : 0;
  436 : 44;
  437 : 0;
  438 : 0;
  439 : 0;
  440 : 240;
  441 : 22;
  442 : 49;
  443 : 143;
  444 : 253;
  445 : 6;
  446 : 55;
  447 : 193;
  448 : 47;
  449 : 10;
  450 : 11;
  451 : 2;
  452 : 55;
  453 : 23;
  454 : 32;
  455 : 252;
  456 : 249;
  457 : 192;
  458 : 250;
  459 : 176;
  460 : 0;
  461 : 219;
  462 : 50;
  463 : 203;
  464 : 0;
  465 : 0;
  466 : 0;
  467 : 0;
  468 : 0;
  469 : 0;
  470 : 4;
  471 : 64;
  472 : 241;
  473 : 13;
  474 : 145;
  475 : 207;
  476 : 251;
  477 : 216;
  478 : 176;
  479 : 245;
  480 : 0;
  481 : 36;
  482 : 0;
  483 : 36;
  484 : 0;
  485 : 0;
  486 : 0;
  487 : 221;
  488 : 0;
  489 : 0;
  490 : 199;
  491 : 62;
  492 : 241;
  493 : 185;
  494 : 200;
  495 : 249;
  496 : 165;
  497 : 73;
  498 : 249;
  499 : 207;
  500 : 2;
  501 : 253;
  502 : 247;
  503 : 250;
  504 : 251;
  505 : 9;
  506 : 167;
  507 : 63;
  508 : 246;
  509 : 39;
  510 : 181;
  511 : 44;
  512 : 1;
  513 : 4;
  514 : 59;
  515 : 210;
  516 : 244;
  517 : 46;
  518 : 42;
  519 : 175;
  520 : 48;
  521 : 48;
  522 : 0;
  523 : 0;
  524 : 51;
  525 : 0;
  526 : 0;
  527 : 0;
  528 : 30;
  529 : 0;
  530 : 252;
  531 : 203;
  532 : 42;
  533 : 44;
  534 : 247;
  535 : 254;
  536 : 203;
  537 : 241;
  538 : 7;
  539 : 19;
  540 : 253;
  541 : 231;
  542 : 8;
  543 : 209;
  544 : 173;
  545 : 55;
  546 : 228;
  547 : 184;
  548 : 14;
  549 : 218;
  550 : 253;
  551 : 240;
  552 : 183;
  553 : 5;
  554 : 51;
  555 : 192;
  556 : 9;
  557 : 234;
  558 : 47;
  559 : 15;
  560 : 206;
  561 : 250;
  562 : 193;
  563 : 203;
  564 : 254;
  565 : 60;
  566 : 62;
  567 : 17;
  568 : 250;
  569 : 186;
  570 : 215;
  571 : 0;
  572 : 214;
  573 : 0;
  574 : 0;
  575 : 30;
  576 : 47;
  577 : 224;
  578 : 211;
  579 : 0;
  580 : 250;
  581 : 234;
  582 : 42;
  583 : 210;
  584 : 6;
  585 : 10;
  586 : 254;
  587 : 10;
  588 : 33;
  589 : 189;
  590 : 251;
  591 : 201;
  592 : 61;
  593 : 188;
  594 : 63;
  595 : 254;
  596 : 37;
  597 : 200;
  598 : 208;
  599 : 176;
  600 : 199;
  601 : 249;
  602 : 189;
  603 : 40;
  604 : 2;
  605 : 50;
  606 : 191;
  607 : 47;
  608 : 254;
  609 : 208;
  610 : 29;
  611 : 0;
  612 : 36;
  613 : 0;
  614 : 221;
  615 : 43;
  616 : 0;
  617 : 0;
  618 : 0;
  619 : 215;
  620 : 224;
  621 : 0;
  622 : 0;
  623 : 0;
  624 : 40;
  625 : 219;
  626 : 0;
  627 : 41;
  628 : 202;
  629 : 219;
  630 : 245;
  631 : 245;
  632 : 2;
  633 : 8;
  634 : 167;
  635 : 207;
  636 : 217;
  637 : 4;
  638 : 8;
  639 : 223;
END;
