WIDTH=8;
DEPTH=288;
ADDRESS_RADIX=UNS;
DATA_RADIX=UNS;
CONTENT BEGIN
  0 : 247;
  1 : 228;
  2 : 255;
  3 : 46;
  4 : 0;
  5 : 254;
  6 : 12;
  7 : 9;
  8 : 243;
  9 : 0;
  10 : 0;
  11 : 248;
  12 : 198;
  13 : 159;
  14 : 25;
  15 : 244;
  16 : 54;
  17 : 209;
  18 : 48;
  19 : 3;
  20 : 45;
  21 : 198;
  22 : 248;
  23 : 201;
  24 : 0;
  25 : 210;
  26 : 22;
  27 : 217;
  28 : 240;
  29 : 27;
  30 : 183;
  31 : 18;
  32 : 30;
  33 : 10;
  34 : 10;
  35 : 8;
  36 : 0;
  37 : 172;
  38 : 254;
  39 : 39;
  40 : 73;
  41 : 0;
  42 : 31;
  43 : 167;
  44 : 242;
  45 : 135;
  46 : 10;
  47 : 42;
  48 : 60;
  49 : 220;
  50 : 0;
  51 : 38;
  52 : 39;
  53 : 223;
  54 : 6;
  55 : 253;
  56 : 0;
  57 : 6;
  58 : 255;
  59 : 233;
  60 : 249;
  61 : 252;
  62 : 219;
  63 : 251;
  64 : 254;
  65 : 8;
  66 : 65;
  67 : 232;
  68 : 0;
  69 : 159;
  70 : 225;
  71 : 70;
  72 : 49;
  73 : 0;
  74 : 176;
  75 : 167;
  76 : 247;
  77 : 195;
  78 : 190;
  79 : 7;
  80 : 2;
  81 : 39;
  82 : 154;
  83 : 42;
  84 : 62;
  85 : 6;
  86 : 250;
  87 : 9;
  88 : 0;
  89 : 229;
  90 : 50;
  91 : 52;
  92 : 13;
  93 : 198;
  94 : 1;
  95 : 4;
  96 : 255;
  97 : 250;
  98 : 31;
  99 : 70;
  100 : 231;
  101 : 246;
  102 : 13;
  103 : 3;
  104 : 33;
  105 : 225;
  106 : 44;
  107 : 37;
  108 : 48;
  109 : 220;
  110 : 249;
  111 : 200;
  112 : 11;
  113 : 186;
  114 : 53;
  115 : 250;
  116 : 217;
  117 : 217;
  118 : 253;
  119 : 192;
  120 : 0;
  121 : 246;
  122 : 215;
  123 : 174;
  124 : 26;
  125 : 55;
  126 : 5;
  127 : 241;
  128 : 254;
  129 : 49;
  130 : 55;
  131 : 3;
  132 : 0;
  133 : 225;
  134 : 5;
  135 : 11;
  136 : 67;
  137 : 0;
  138 : 3;
  139 : 4;
  140 : 59;
  141 : 9;
  142 : 72;
  143 : 21;
  144 : 234;
  145 : 19;
  146 : 220;
  147 : 3;
  148 : 12;
  149 : 16;
  150 : 33;
  151 : 11;
  152 : 0;
  153 : 35;
  154 : 3;
  155 : 22;
  156 : 255;
  157 : 244;
  158 : 61;
  159 : 25;
  160 : 252;
  161 : 3;
  162 : 6;
  163 : 157;
  164 : 0;
  165 : 35;
  166 : 186;
  167 : 229;
  168 : 196;
  169 : 0;
  170 : 179;
  171 : 221;
  172 : 56;
  173 : 0;
  174 : 9;
  175 : 89;
  176 : 209;
  177 : 51;
  178 : 178;
  179 : 7;
  180 : 45;
  181 : 65;
  182 : 30;
  183 : 17;
  184 : 0;
  185 : 253;
  186 : 84;
  187 : 19;
  188 : 12;
  189 : 194;
  190 : 32;
  191 : 2;
  192 : 253;
  193 : 246;
  194 : 220;
  195 : 13;
  196 : 0;
  197 : 51;
  198 : 2;
  199 : 165;
  200 : 249;
  201 : 0;
  202 : 58;
  203 : 33;
  204 : 228;
  205 : 14;
  206 : 205;
  207 : 160;
  208 : 190;
  209 : 0;
  210 : 252;
  211 : 157;
  212 : 212;
  213 : 1;
  214 : 3;
  215 : 205;
  216 : 0;
  217 : 10;
  218 : 175;
  219 : 185;
  220 : 7;
  221 : 31;
  222 : 30;
  223 : 255;
  224 : 253;
  225 : 30;
  226 : 176;
  227 : 187;
  228 : 0;
  229 : 74;
  230 : 54;
  231 : 194;
  232 : 173;
  233 : 0;
  234 : 9;
  235 : 57;
  236 : 246;
  237 : 64;
  238 : 35;
  239 : 229;
  240 : 205;
  241 : 53;
  242 : 129;
  243 : 246;
  244 : 159;
  245 : 43;
  246 : 3;
  247 : 2;
  248 : 0;
  249 : 26;
  250 : 191;
  251 : 11;
  252 : 254;
  253 : 255;
  254 : 250;
  255 : 5;
  256 : 251;
  257 : 239;
  258 : 177;
  259 : 245;
  260 : 0;
  261 : 44;
  262 : 16;
  263 : 234;
  264 : 162;
  265 : 0;
  266 : 0;
  267 : 61;
  268 : 201;
  269 : 65;
  270 : 4;
  271 : 13;
  272 : 9;
  273 : 10;
  274 : 248;
  275 : 9;
  276 : 192;
  277 : 254;
  278 : 248;
  279 : 73;
  280 : 0;
  281 : 248;
  282 : 3;
  283 : 18;
  284 : 205;
  285 : 29;
  286 : 237;
  287 : 249;
END;
