WIDTH=8;
DEPTH=64;
ADDRESS_RADIX=UNS;
DATA_RADIX=UNS;
CONTENT BEGIN
  0 : 9;
  1 : 231;
  2 : 74;
  3 : 76;
  4 : 41;
  5 : 45;
  6 : 20;
  7 : 251;
  8 : 19;
  9 : 216;
  10 : 71;
  11 : 59;
  12 : 237;
  13 : 242;
  14 : 222;
  15 : 30;
  16 : 0;
  17 : 214;
  18 : 0;
  19 : 0;
  20 : 239;
  21 : 51;
  22 : 129;
  23 : 110;
  24 : 228;
  25 : 184;
  26 : 232;
  27 : 19;
  28 : 47;
  29 : 224;
  30 : 160;
  31 : 21;
  32 : 32;
  33 : 0;
  34 : 0;
  35 : 250;
  36 : 246;
  37 : 230;
  38 : 32;
  39 : 72;
  40 : 234;
  41 : 0;
  42 : 15;
  43 : 0;
  44 : 35;
  45 : 32;
  46 : 0;
  47 : 244;
  48 : 0;
  49 : 245;
  50 : 243;
  51 : 65;
  52 : 0;
  53 : 164;
  54 : 3;
  55 : 19;
  56 : 245;
  57 : 0;
  58 : 56;
  59 : 248;
  60 : 235;
  61 : 0;
  62 : 232;
  63 : 13;
END;
